[PAD]	0
[UNK]	0
[BOS]	0
[EOS]	0
<0x00>	0
<0x01>	0
<0x02>	0
<0x03>	0
<0x04>	0
<0x05>	0
<0x06>	0
<0x07>	0
<0x08>	0
<0x09>	0
<0x0A>	0
<0x0B>	0
<0x0C>	0
<0x0D>	0
<0x0E>	0
<0x0F>	0
<0x10>	0
<0x11>	0
<0x12>	0
<0x13>	0
<0x14>	0
<0x15>	0
<0x16>	0
<0x17>	0
<0x18>	0
<0x19>	0
<0x1A>	0
<0x1B>	0
<0x1C>	0
<0x1D>	0
<0x1E>	0
<0x1F>	0
<0x20>	0
<0x21>	0
<0x22>	0
<0x23>	0
<0x24>	0
<0x25>	0
<0x26>	0
<0x27>	0
<0x28>	0
<0x29>	0
<0x2A>	0
<0x2B>	0
<0x2C>	0
<0x2D>	0
<0x2E>	0
<0x2F>	0
<0x30>	0
<0x31>	0
<0x32>	0
<0x33>	0
<0x34>	0
<0x35>	0
<0x36>	0
<0x37>	0
<0x38>	0
<0x39>	0
<0x3A>	0
<0x3B>	0
<0x3C>	0
<0x3D>	0
<0x3E>	0
<0x3F>	0
<0x40>	0
<0x41>	0
<0x42>	0
<0x43>	0
<0x44>	0
<0x45>	0
<0x46>	0
<0x47>	0
<0x48>	0
<0x49>	0
<0x4A>	0
<0x4B>	0
<0x4C>	0
<0x4D>	0
<0x4E>	0
<0x4F>	0
<0x50>	0
<0x51>	0
<0x52>	0
<0x53>	0
<0x54>	0
<0x55>	0
<0x56>	0
<0x57>	0
<0x58>	0
<0x59>	0
<0x5A>	0
<0x5B>	0
<0x5C>	0
<0x5D>	0
<0x5E>	0
<0x5F>	0
<0x60>	0
<0x61>	0
<0x62>	0
<0x63>	0
<0x64>	0
<0x65>	0
<0x66>	0
<0x67>	0
<0x68>	0
<0x69>	0
<0x6A>	0
<0x6B>	0
<0x6C>	0
<0x6D>	0
<0x6E>	0
<0x6F>	0
<0x70>	0
<0x71>	0
<0x72>	0
<0x73>	0
<0x74>	0
<0x75>	0
<0x76>	0
<0x77>	0
<0x78>	0
<0x79>	0
<0x7A>	0
<0x7B>	0
<0x7C>	0
<0x7D>	0
<0x7E>	0
<0x7F>	0
<0x80>	0
<0x81>	0
<0x82>	0
<0x83>	0
<0x84>	0
<0x85>	0
<0x86>	0
<0x87>	0
<0x88>	0
<0x89>	0
<0x8A>	0
<0x8B>	0
<0x8C>	0
<0x8D>	0
<0x8E>	0
<0x8F>	0
<0x90>	0
<0x91>	0
<0x92>	0
<0x93>	0
<0x94>	0
<0x95>	0
<0x96>	0
<0x97>	0
<0x98>	0
<0x99>	0
<0x9A>	0
<0x9B>	0
<0x9C>	0
<0x9D>	0
<0x9E>	0
<0x9F>	0
<0xA0>	0
<0xA1>	0
<0xA2>	0
<0xA3>	0
<0xA4>	0
<0xA5>	0
<0xA6>	0
<0xA7>	0
<0xA8>	0
<0xA9>	0
<0xAA>	0
<0xAB>	0
<0xAC>	0
<0xAD>	0
<0xAE>	0
<0xAF>	0
<0xB0>	0
<0xB1>	0
<0xB2>	0
<0xB3>	0
<0xB4>	0
<0xB5>	0
<0xB6>	0
<0xB7>	0
<0xB8>	0
<0xB9>	0
<0xBA>	0
<0xBB>	0
<0xBC>	0
<0xBD>	0
<0xBE>	0
<0xBF>	0
<0xC0>	0
<0xC1>	0
<0xC2>	0
<0xC3>	0
<0xC4>	0
<0xC5>	0
<0xC6>	0
<0xC7>	0
<0xC8>	0
<0xC9>	0
<0xCA>	0
<0xCB>	0
<0xCC>	0
<0xCD>	0
<0xCE>	0
<0xCF>	0
<0xD0>	0
<0xD1>	0
<0xD2>	0
<0xD3>	0
<0xD4>	0
<0xD5>	0
<0xD6>	0
<0xD7>	0
<0xD8>	0
<0xD9>	0
<0xDA>	0
<0xDB>	0
<0xDC>	0
<0xDD>	0
<0xDE>	0
<0xDF>	0
<0xE0>	0
<0xE1>	0
<0xE2>	0
<0xE3>	0
<0xE4>	0
<0xE5>	0
<0xE6>	0
<0xE7>	0
<0xE8>	0
<0xE9>	0
<0xEA>	0
<0xEB>	0
<0xEC>	0
<0xED>	0
<0xEE>	0
<0xEF>	0
<0xF0>	0
<0xF1>	0
<0xF2>	0
<0xF3>	0
<0xF4>	0
<0xF5>	0
<0xF6>	0
<0xF7>	0
<0xF8>	0
<0xF9>	0
<0xFA>	0
<0xFB>	0
<0xFC>	0
<0xFD>	0
<0xFE>	0
<0xFF>	0
er	-0
in	-1
on	-2
at	-3
re	-4
an	-5
en	-6
st	-7
ic	-8
or	-9
▁t	-10
al	-11
et	-12
▁*	-13
ion	-14
le	-15
ro	-16
▁p	-17
▁{	-18
);	-19
▁i	-20
id	-21
ed	-22
▁}	-23
it	-24
he	-25
▁c	-26
▁m	-27
▁=	-28
ac	-29
▁f	-30
ing	-31
ur	-32
es	-33
ar	-34
()	-35
ag	-36
is	-37
▁in	-38
mp	-39
▁re	-40
as	-41
▁s	-42
get	-43
ate	-44
ent	-45
▁the	-46
ut	-47
and	-48
St	-49
lic	-50
▁n	-51
ll	-52
In	-53
un	-54
ec	-55
ub	-56
ri	-57
ot	-58
ort	-59
se	-60
ation	-61
▁/	-62
▁b	-63
urn	-64
▁@	-65
▁(	-66
ublic	-67
ew	-68
▁public	-69
ser	-70
▁v	-71
ex	-72
ce	-73
▁int	-74
am	-75
est	-76
turn	-77
▁imp	-78
ap	-79
▁d	-80
ay	-81
ont	-82
ack	-83
roid	-84
▁return	-85
▁w	-86
▁import	-87
il	-88
ble	-89
android	-90
ist	-91
tion	-92
oc	-93
ad	-94
ull	-95
▁o	-96
▁"	-97
im	-98
▁st	-99
all	-100
age	-101
ver	-102
able	-103
▁l	-104
od	-105
if	-106
ow	-107
▁th	-108
▁if	-109
vic	-110
▁get	-111
▁to	-112
▁A	-113
om	-114
▁fin	-115
ter	-116
▁L	-117
▁a	-118
el	-119
ue	-120
();	-121
▁T	-122
vice	-123
▁/*	-124
ON	-125
▁S	-126
▁*/	-127
em	-128
ext	-129
▁final	-130
Cont	-131
qu	-132
iv	-133
ess	-134
Id	-135
ig	-136
▁is	-137
riv	-138
ring	-139
ity	-140
ock	-141
ch	-142
ul	-143
der	-144
ect	-145
iew	-146
▁android	-147
rivate	-148
▁//	-149
▁u	-150
▁private	-151
TI	-152
String	-153
fo	-154
icen	-155
▁C	-156
ol	-157
Man	-158
Pro	-159
ame	-160
Ex	-161
pl	-162
ER	-163
set	-164
▁stat	-165
▁/**	-166
int	-167
▁new	-168
ager	-169
ile	-170
IN	-171
Manager	-172
icense	-173
ct	-174
▁for	-175
og	-176
oid	-177
▁as	-178
up	-179
op	-180
ackage	-181
▁null	-182
Re	-183
▁void	-184
▁static	-185
State	-186
RE	-187
ode	-188
▁of	-189
um	-190
ide	-191
ith	-192
app	-193
TA	-194
iz	-195
res	-196
▁+	-197
ang	-198
ption	-199
▁0	-200
ey	-201
Info	-202
▁or	-203
▁h	-204
os	-205
View	-206
▁License	-207
sion	-208
Test	-209
▁on	-210
De	-211
omp	-212
EN	-213
sert	-214
th	-215
).	-216
oun	-217
▁tr	-218
▁e	-219
Int	-220
List	-221
ass	-222
▁val	-223
oo	-224
Con	-225
yst	-226
ystem	-227
lin	-228
end	-229
us	-230
▁com	-231
ervice	-232
▁{@	-233
TE	-234
Tr	-235
To	-236
ific	-237
yp	-238
ult	-239
▁I	-240
ime	-241
ans	-242
act	-243
▁O	-244
▁B	-245
DE	-246
ind	-247
User	-248
ain	-249
out	-250
ure	-251
play	-252
lean	-253
back	-254
nt	-255
▁an	-256
▁be	-257
isplay	-258
ht	-259
vent	-260
art	-261
▁P	-262
oolean	-263
lass	-264
▁assert	-265
Ch	-266
av	-267
▁this	-268
Null	-269
ata	-270
▁<	-271
▁un	-272
▁String	-273
("	-274
▁ex	-275
TION	-276
ition	-277
aram	-278
li	-279
Name	-280
ener	-281
link	-282
▁not	-283
▁wh	-284
▁1	-285
are	-286
put	-287
ception	-288
▁R	-289
ivity	-290
roll	-291
alse	-292
▁W	-293
Call	-294
Ap	-295
▁2	-296
Service	-297
our	-298
Not	-299
Exception	-300
verr	-301
ace	-302
▁and	-303
ype	-304
erm	-305
An	-306
fig	-307
AN	-308
");	-309
lag	-310
lo	-311
ask	-312
verride	-313
LE	-314
▁M	-315
OR	-316
AC	-317
▁set	-318
▁!	-319
IS	-320
▁-	-321
Th	-322
ance	-323
ject	-324
IC	-325
Sc	-326
cess	-327
ification	-328
indow	-329
▁pro	-330
Key	-331
rr	-332
ive	-333
row	-334
AS	-335
▁The	-336
▁g	-337
Stat	-338
ize	-339
En	-340
▁U	-341
ard	-342
Res	-343
For	-344
rib	-345
ff	-346
AG	-347
▁==	-348
ill	-349
ission	-350
ES	-351
▁de	-352
ermission	-353
Context	-354
ong	-355
AL	-356
00	-357
tr	-358
add	-359
▁under	-360
qual	-361
rit	-362
▁by	-363
ase	-364
▁boolean	-365
ribut	-366
▁!=	-367
Event	-368
per	-369
roller	-370
Act	-371
Set	-372
Device	-373
OU	-374
Non	-375
ib	-376
rom	-377
ak	-378
App	-379
Display	-380
Inter	-381
uil	-382
atch	-383
aw	-384
▁with	-385
▁.	-386
ens	-387
▁app	-388
Override	-389
Hand	-390
ment	-391
));	-392
ction	-393
ource	-394
red	-395
io	-396
ting	-397
sed	-398
▁cont	-399
▁F	-400
IT	-401
ID	-402
());	-403
▁user	-404
ial	-405
lags	-406
Lock	-407
AR	-408
port	-409
rig	-410
ui	-411
Package	-412
NonNull	-413
▁sh	-414
rray	-415
ated	-416
▁false	-417
Controller	-418
Trans	-419
▁that	-420
nal	-421
))	-422
ast	-423
▁call	-424
Listener	-425
quest	-426
param	-427
",	-428
ME	-429
ache	-430
Chang	-431
ly	-432
urre	-433
Callback	-434
▁true	-435
SE	-436
cont	-437
ir	-438
▁it	-439
ou	-440
Rec	-441
▁con	-442
urrent	-443
▁j	-444
ator	-445
not	-446
Config	-447
.0	-448
ord	-449
Time	-450
Sh	-451
ress	-452
pec	-453
▁r	-454
ov	-455
for	-456
(),	-457
abled	-458
Type	-459
Data	-460
▁may	-461
ound	-462
to	-463
ount	-464
Val	-465
con	-466
ud	-467
ession	-468
Equal	-469
tt	-470
▁res	-471
und	-472
▁package	-473
▁k	-474
ers	-475
ify	-476
system	-477
ory	-478
ight	-479
reate	-480
▁&	-481
ations	-482
▁ch	-483
opy	-484
vid	-485
ore	-486
ayout	-487
pt	-488
ger	-489
edi	-490
().	-491
TR	-492
ifi	-493
▁at	-494
▁test	-495
),	-496
On	-497
oul	-498
ould	-499
Intent	-500
▁throw	-501
▁when	-502
qui	-503
Mode	-504
right	-505
ility	-506
ss	-507
pd	-508
Activity	-509
systemui	-510
▁fun	-511
PE	-512
face	-513
ava	-514
eth	-515
Notification	-516
▁V	-517
--	-518
Comp	-519
ork	-520
rint	-521
▁comp	-522
Window	-523
fa	-524
ler	-525
STA	-526
read	-527
yn	-528
())	-529
▁dist	-530
Un	-531
loat	-532
ip	-533
of	-534
ning	-535
util	-536
Task	-537
ck	-538
ection	-539
ected	-540
fault	-541
action	-542
Po	-543
That	-544
ww	-545
ributed	-546
uration	-547
[]	-548
DI	-549
ant	-550
tings	-551
▁exp	-552
▁ob	-553
▁#	-554
▁distributed	-555
val	-556
▁class	-557
ric	-558
TAG	-559
edia	-560
US	-561
Anim	-562
▁el	-563
eturn	-564
Log	-565
reen	-566
inter	-567
lock	-568
ee	-569
ob	-570
uard	-571
uilder	-572
Flags	-573
arget	-574
OW	-575
ry	-576
ible	-577
ibility	-578
ake	-579
▁assertThat	-580
▁D	-581
ele	-582
ote	-583
ust	-584
vider	-585
arce	-586
sc	-587
SI	-588
System	-589
▁&&	-590
fer	-591
heck	-592
led	-593
▁else	-594
olor	-595
Ad	-596
▁java	-597
apt	-598
essage	-599
form	-600
▁y	-601
▁long	-602
oth	-603
raw	-604
ware	-605
Content	-606
▁ver	-607
▁org	-608
ies	-609
KE	-610
arcel	-611
▁Pro	-612
ream	-613
onent	-614
TY	-615
Input	-616
▁|	-617
▁use	-618
RO	-619
Array	-620
By	-621
ove	-622
ail	-623
Mock	-624
▁spec	-625
ument	-626
▁Ap	-627
licy	-628
Value	-629
udio	-630
▁An	-631
droid	-632
ODE	-633
ule	-634
view	-635
//	-636
class	-637
Start	-638
Status	-639
▁value	-640
Vis	-641
▁act	-642
OUT	-643
▁from	-644
upport	-645
pdate	-646
ING	-647
ug	-648
file	-649
ED	-650
▁:	-651
ethod	-652
sh	-653
print	-654
With	-655
Uid	-656
Session	-657
roup	-658
ab	-659
ary	-660
server	-661
ilter	-662
str	-663
▁file	-664
code	-665
▁will	-666
Mod	-667
▁3	-668
Text	-669
He	-670
";	-671
AT	-672
test	-673
ence	-674
▁0;	-675
▁writ	-676
IND	-677
ath	-678
ty	-679
ower	-680
▁case	-681
▁->	-682
Handler	-683
gist	-684
annot	-685
▁permission	-686
ito	-687
over	-688
▁G	-689
ENT	-690
Stats	-691
Layout	-692
inder	-693
UL	-694
▁state	-695
own	-696
▁list	-697
guard	-698
Equals	-699
Rem	-700
LIC	-701
Changed	-702
▁should	-703
ersion	-704
AP	-705
CH	-706
ccess	-707
rg	-708
▁Th	-709
Enabled	-710
Run	-711
uth	-712
arg	-713
▁)	-714
▁applic	-715
Request	-716
pen	-717
▁sc	-718
ax	-719
etw	-720
ecut	-721
hide	-722
</	-723
til	-724
ach	-725
Fr	-726
quired	-727
ken	-728
ild	-729
ner	-730
Transition	-731
log	-732
▁are	-733
▁start	-734
lay	-735
TYPE	-736
ine	-737
ounds	-738
▁key	-739
te	-740
tain	-741
▁Un	-742
BLE	-743
ATION	-744
▁all	-745
esc	-746
LO	-747
ph	-748
rol	-749
TO	-750
▁has	-751
one	-752
All	-753
ized	-754
(@	-755
▁any	-756
cept	-757
imit	-758
Dis	-759
LAG	-760
round	-761
▁mP	-762
dex	-763
Handle	-764
▁verify	-765
RI	-766
Map	-767
urface	-768
idth	-769
content	-770
▁do	-771
▁view	-772
Size	-773
FI	-774
▁can	-775
UN	-776
RAN	-777
Param	-778
LA	-779
ACK	-780
▁device	-781
Locked	-782
pos	-783
ative	-784
atter	-785
Back	-786
▁en	-787
▁you	-788
▁4	-789
▁display	-790
▁ag	-791
Permission	-792
ix	-793
CON	-794
▁H	-795
File	-796
▁K	-797
Util	-798
less	-799
KEY	-800
AGE	-801
▁try	-802
▁assertEquals	-803
Provider	-804
gth	-805
▁we	-806
Ob	-807
etwork	-808
Bar	-809
▁al	-810
ocal	-811
▁Android	-812
")	-813
▁Set	-814
Le	-815
▁trans	-816
▁result	-817
etric	-818
lement	-819
ange	-820
▁5	-821
Return	-822
From	-823
▁create	-824
leg	-825
uff	-826
CE	-827
actor	-828
▁See	-829
ither	-830
ost	-831
(0	-832
Policy	-833
uild	-834
omm	-835
Action	-836
▁Y	-837
Record	-838
▁required	-839
▁N	-840
Nullable	-841
Builder	-842
▁float	-843
unit	-844
▁copy	-845
▁inst	-846
▁Array	-847
▁event	-848
return	-849
Count	-850
▁CON	-851
▁data	-852
nection	-853
upported	-854
angu	-855
()).	-856
ITH	-857
TIONS	-858
}.	-859
(1	-860
▁specific	-861
▁out	-862
ces	-863
oft	-864
ond	-865
anguage	-866
▁either	-867
Inst	-868
▁20	-869
▁This	-870
new	-871
Utils	-872
▁context	-873
▁pw	-874
▁permissions	-875
▁throws	-876
rawable	-877
://	-878
Is	-879
▁limit	-880
Ent	-881
ground	-882
Message	-883
▁add	-884
ual	-885
move	-886
mock	-887
osition	-888
▁AN	-889
mpl	-890
▁current	-891
ave	-892
lient	-893
▁mC	-894
▁pre	-895
Sp	-896
ending	-897
olum	-898
▁obtain	-899
▁(!	-900
▁id	-901
▁IS	-902
gister	-903
the	-904
▁You	-905
ibr	-906
FLAG	-907
pro	-908
ICE	-909
rite	-910
time	-911
Us	-912
ness	-913
eed	-914
junit	-915
pre	-916
ocation	-917
annotation	-918
org	-919
run	-920
Att	-921
ade	-922
Group	-923
ttp	-924
▁Log	-925
Arg	-926
TIES	-927
-2	-928
Internal	-929
escri	-930
▁language	-931
▁Version	-932
▁soft	-933
ensor	-934
ength	-935
Icon	-936
▁OF	-937
Visible	-938
▁syn	-939
▁userId	-940
▁except	-941
▁2.0	-942
Animation	-943
▁Copy	-944
▁Open	-945
▁http	-946
▁Source	-947
Bounds	-948
▁6	-949
▁applicable	-950
▁request	-951
▁writing	-952
size	-953
undle	-954
de	-955
▁OR	-956
www	-957
key	-958
ITY	-959
▁software	-960
▁BAS	-961
true	-962
STATE	-963
Pre	-964
As	-965
▁impli	-966
liance	-967
uffer	-968
▁||	-969
EX	-970
▁WAR	-971
ITHOUT	-972
apache	-973
reed	-974
FA	-975
▁ANY	-976
ENSE	-977
AD	-978
▁CONDI	-979
▁compliance	-980
1;	-981
Stream	-982
▁express	-983
▁limitations	-984
▁Unless	-985
▁Apache	-986
ues	-987
▁implied	-988
enses	-989
▁gover	-990
low	-991
licenses	-992
▁Copyright	-993
LICENSE	-994
License	-995
▁agreed	-996
▁WITHOUT	-997
▁KIND	-998
▁law	-999
▁Licen	-1000
-2.0	-1001
RANTIES	-1002
▁WARRANTIES	-1003
▁governing	-1004
▁BASIS	-1005
▁CONDITIONS	-1006
▁Licensed	-1007
▁Project	-1008
ash	-1009
Al	-1010
VICE	-1011
▁run	-1012
comp	-1013
iver	-1014
Result	-1015
Color	-1016
oot	-1017
ere	-1018
Settings	-1019
Remote	-1020
other	-1021
me	-1022
arent	-1023
ST	-1024
▁ext	-1025
olle	-1026
ps	-1027
aun	-1028
OL	-1029
user	-1030
alled	-1031
MP	-1032
▁callback	-1033
▁default	-1034
At	-1035
see	-1036
ron	-1037
▁>	-1038
▁List	-1039
Of	-1040
ialog	-1041
Model	-1042
cut	-1043
aunch	-1044
ULT	-1045
▁inter	-1046
RES	-1047
ALL	-1048
ages	-1049
VER	-1050
uch	-1051
Capt	-1052
mat	-1053
Class	-1054
kg	-1055
ATE	-1056
ader	-1057
Change	-1058
ecutor	-1059
▁time	-1060
ortcut	-1061
then	-1062
Control	-1063
▁catch	-1064
ann	-1065
▁mS	-1066
EqualTo	-1067
Profile	-1068
ally	-1069
chron	-1070
ump	-1071
▁0,	-1072
BU	-1073
0;	-1074
vel	-1075
ainer	-1076
posit	-1077
▁8	-1078
MODE	-1079
amp	-1080
mpty	-1081
Parcel	-1082
ared	-1083
internal	-1084
SC	-1085
Keyguard	-1086
TER	-1087
amer	-1088
▁?	-1089
Entry	-1090
UserId	-1091
sets	-1092
ish	-1093
And	-1094
Default	-1095
USER	-1096
Component	-1097
▁anim	-1098
IL	-1099
gr	-1100
="	-1101
NA	-1102
eat	-1103
isEqualTo	-1104
Lo	-1105
▁9	-1106
cast	-1107
ates	-1108
amera	-1109
pository	-1110
----	-1111
▁7	-1112
illis	-1113
Target	-1114
attery	-1115
▁View	-1116
thenReturn	-1117
umb	-1118
ton	-1119
True	-1120
hen	-1121
road	-1122
start	-1123
roadcast	-1124
Exp	-1125
ich	-1126
utton	-1127
eld	-1128
LAY	-1129
▁androidx	-1130
cle	-1131
write	-1132
▁name	-1133
▁update	-1134
▁synchron	-1135
▁0)	-1136
sum	-1137
rightness	-1138
ifier	-1139
Out	-1140
Screen	-1141
fore	-1142
cl	-1143
ield	-1144
ire	-1145
▁If	-1146
econd	-1147
▁used	-1148
Rule	-1149
let	-1150
▁service	-1151
NO	-1152
▁dis	-1153
Media	-1154
Params	-1155
Index	-1156
TH	-1157
▁ac	-1158
▁hand	-1159
ources	-1160
▁activity	-1161
VE	-1162
map	-1163
ical	-1164
Code	-1165
ason	-1166
lick	-1167
mockito	-1168
Binder	-1169
ffect	-1170
▁synchronized	-1171
Access	-1172
vices	-1173
ABLE	-1174
It	-1175
this	-1176
Rece	-1177
lication	-1178
value	-1179
▁type	-1180
DIS	-1181
▁task	-1182
4;	-1183
Token	-1184
ocus	-1185
Or	-1186
ms	-1187
Track	-1188
Be	-1189
▁method	-1190
▁User	-1191
SER	-1192
Configuration	-1193
Height	-1194
idget	-1195
▁sup	-1196
▁which	-1197
2;	-1198
annel	-1199
elper	-1200
cy	-1201
PRO	-1202
bo	-1203
▁log	-1204
▁In	-1205
ml	-1206
1,	-1207
arse	-1208
Item	-1209
ever	-1210
aint	-1211
Source	-1212
Audio	-1213
irst	-1214
▁Slog	-1215
eger	-1216
Power	-1217
old	-1218
TED	-1219
Connection	-1220
ference	-1221
lob	-1222
▁Act	-1223
Filter	-1224
▁ro	-1225
ync	-1226
any	-1227
yle	-1228
create	-1229
SION	-1230
▁intent	-1231
▁check	-1232
Helper	-1233
▁Int	-1234
FAULT	-1235
DEFAULT	-1236
Descri	-1237
ope	-1238
package	-1239
Interactor	-1240
Se	-1241
ene	-1242
wit	-1243
▁he	-1244
ign	-1245
++	-1246
Argument	-1247
▁config	-1248
▁Ob	-1249
▁other	-1250
use	-1251
ACTION	-1252
ose	-1253
Up	-1254
ains	-1255
rim	-1256
fter	-1257
EST	-1258
Millis	-1259
End	-1260
sing	-1261
OUN	-1262
▁Return	-1263
Last	-1264
oper	-1265
Executor	-1266
Thread	-1267
▁target	-1268
▁override	-1269
elect	-1270
witch	-1271
arser	-1272
stat	-1273
patch	-1274
ln	-1275
olume	-1276
min	-1277
reak	-1278
ys	-1279
count	-1280
Job	-1281
tom	-1282
3;	-1283
ft	-1284
Current	-1285
ACKAGE	-1286
▁uid	-1287
Impl	-1288
Container	-1289
false	-1290
5;	-1291
Active	-1292
stant	-1293
umber	-1294
MS	-1295
append	-1296
▁Con	-1297
Ser	-1298
ve	-1299
▁window	-1300
Add	-1301
Attribut	-1302
6;	-1303
<>	-1304
Proper	-1305
Auth	-1306
ait	-1307
println	-1308
ics	-1309
CO	-1310
▁Activity	-1311
▁E	-1312
UP	-1313
URE	-1314
▁only	-1315
rror	-1316
Width	-1317
Process	-1318
▁listener	-1319
ply	-1320
▁Tr	-1321
▁le	-1322
Usage	-1323
8;	-1324
▁Object	-1325
legal	-1326
plit	-1327
itial	-1328
▁no	-1329
▁prot	-1330
ESS	-1331
orout	-1332
llegal	-1333
9;	-1334
Api	-1335
ONE	-1336
7;	-1337
Repository	-1338
NAME	-1339
vail	-1340
itor	-1341
SH	-1342
▁var	-1343
quals	-1344
▁ab	-1345
Ms	-1346
hell	-1347
null	-1348
Network	-1349
bar	-1350
},	-1351
▁Intent	-1352
ines	-1353
▁system	-1354
▁object	-1355
lu	-1356
▁have	-1357
etrics	-1358
▁Package	-1359
APP	-1360
▁break	-1361
Tag	-1362
Resol	-1363
Spec	-1364
PackageName	-1365
▁super	-1366
ached	-1367
NE	-1368
2()	-1369
ified	-1370
Logger	-1371
1()	-1372
Update	-1373
4()	-1374
ert	-1375
3()	-1376
Calling	-1377
Rest	-1378
6()	-1379
5()	-1380
8()	-1381
length	-1382
ardware	-1383
False	-1384
7()	-1385
9()	-1386
▁flags	-1387
ient	-1388
▁session	-1389
com	-1390
mage	-1391
resent	-1392
Surface	-1393
▁po	-1394
resh	-1395
▁back	-1396
Scope	-1397
valid	-1398
▁info	-1399
▁[	-1400
Receiver	-1401
enu	-1402
list	-1403
Det	-1404
Off	-1405
ottom	-1406
verlay	-1407
Sub	-1408
LOC	-1409
Child	-1410
iom	-1411
▁was	-1412
ooth	-1413
Long	-1414
QU	-1415
▁chang	-1416
remove	-1417
rag	-1418
▁mM	-1419
▁202	-1420
SET	-1421
lobal	-1422
apter	-1423
▁mB	-1424
YS	-1425
entry	-1426
▁rec	-1427
▁protected	-1428
0,	-1429
esture	-1430
VAL	-1431
▁Notification	-1432
Ident	-1433
icon	-1434
▁sub	-1435
Local	-1436
PER	-1437
ted	-1438
ched	-1439
Top	-1440
▁mContext	-1441
ends	-1442
dm	-1443
ear	-1444
Position	-1445
IG	-1446
▁Test	-1447
▁mode	-1448
▁size	-1449
BUG	-1450
Boolean	-1451
has	-1452
luet	-1453
luetooth	-1454
equals	-1455
ities	-1456
PACKAGE	-1457
itmap	-1458
CODE	-1459
▁Rem	-1460
▁rem	-1461
ubble	-1462
MA	-1463
ptions	-1464
ony	-1465
▁text	-1466
Method	-1467
0()	-1468
ale	-1469
)).	-1470
vailable	-1471
▁packageName	-1472
fin	-1473
pm	-1474
izer	-1475
assert	-1476
Path	-1477
Clock	-1478
ateg	-1479
eature	-1480
AU	-1481
▁Returns	-1482
TIME	-1483
emp	-1484
entic	-1485
eleph	-1486
build	-1487
Aut	-1488
Ui	-1489
Qu	-1490
elephony	-1491
name	-1492
ause	-1493
ames	-1494
gress	-1495
▁Exception	-1496
▁calling	-1497
aph	-1498
err	-1499
older	-1500
Observer	-1501
Error	-1502
owed	-1503
DEBUG	-1504
UR	-1505
status	-1506
screen	-1507
ep	-1508
sp	-1509
Proto	-1510
▁child	-1511
Drawable	-1512
iven	-1513
otion	-1514
▁ArrayList	-1515
current	-1516
ld	-1517
OWN	-1518
ency	-1519
▁Illegal	-1520
Dialog	-1521
fl	-1522
ties	-1523
ancel	-1524
ome	-1525
dic	-1526
ating	-1527
clud	-1528
▁mock	-1529
mos	-1530
Captor	-1531
▁App	-1532
Shortcut	-1533
call	-1534
by	-1535
osmos	-1536
++)	-1537
▁end	-1538
LL	-1539
PLAY	-1540
ether	-1541
peration	-1542
▁so	-1543
Animator	-1544
▁input	-1545
▁sp	-1546
StatusBar	-1547
context	-1548
Button	-1549
Root	-1550
acy	-1551
▁transition	-1552
▁arg	-1553
Empty	-1554
..	-1555
Buffer	-1556
apture	-1557
TEM	-1558
uid	-1559
supported	-1560
ery	-1561
register	-1562
DEVICE	-1563
▁given	-1564
permission	-1565
▁implement	-1566
FF	-1567
UID	-1568
Transaction	-1569
ge	-1570
▁need	-1571
Brightness	-1572
==	-1573
▁instance	-1574
Frame	-1575
Client	-1576
▁ad	-1577
Format	-1578
▁dest	-1579
OD	-1580
pon	-1581
▁Key	-1582
display	-1583
PackageManager	-1584
Extr	-1585
ollect	-1586
itle	-1587
ick	-1588
Xml	-1589
ifest	-1590
▁process	-1591
arr	-1592
Insets	-1593
▁content	-1594
Read	-1595
Tracker	-1596
top	-1597
Tile	-1598
ugg	-1599
AM	-1600
dmi	-1601
uct	-1602
];	-1603
Object	-1604
▁Display	-1605
Instance	-1606
Show	-1607
RemoteException	-1608
GE	-1609
Sec	-1610
ackages	-1611
Setting	-1612
ptor	-1613
tes	-1614
otlin	-1615
oroutines	-1616
▁notification	-1617
▁Comp	-1618
ren	-1619
▁native	-1620
▁Context	-1621
vis	-1622
REEN	-1623
▁one	-1624
oved	-1625
ite	-1626
array	-1627
Accessibility	-1628
If	-1629
asure	-1630
Sensor	-1631
actory	-1632
TRA	-1633
▁Audio	-1634
▁param	-1635
Flag	-1636
Touch	-1637
▁extends	-1638
Unit	-1639
userId	-1640
FO	-1641
data	-1642
YSTEM	-1643
ential	-1644
▁mod	-1645
IM	-1646
Comm	-1647
Uri	-1648
Tim	-1649
▁must	-1650
▁ap	-1651
ypes	-1652
error	-1653
sumer	-1654
pha	-1655
Rect	-1656
▁System	-1657
NG	-1658
Sm	-1659
ender	-1660
elay	-1661
::	-1662
etad	-1663
▁max	-1664
etadata	-1665
way	-1666
ute	-1667
Channel	-1668
▁tim	-1669
Level	-1670
que	-1671
PO	-1672
Looper	-1673
throw	-1674
▁source	-1675
ManagerService	-1676
apsed	-1677
▁((	-1678
mod	-1679
▁mService	-1680
type	-1681
▁100	-1682
mLock	-1683
urity	-1684
▁vis	-1685
▁Window	-1686
▁assertTrue	-1687
▁action	-1688
onitor	-1689
Adapter	-1690
inger	-1691
▁mF	-1692
rigger	-1693
▁does	-1694
INT	-1695
▁expected	-1696
mContext	-1697
prec	-1698
nable	-1699
Visibility	-1700
ForTest	-1701
▁1;	-1702
Manifest	-1703
riter	-1704
▁0);	-1705
Constant	-1706
HT	-1707
<>();	-1708
ree	-1709
▁Rect	-1710
CTION	-1711
ACTI	-1712
quire	-1713
ustom	-1714
eter	-1715
Mockito	-1716
VI	-1717
▁Remote	-1718
mis	-1719
Output	-1720
Effect	-1721
nap	-1722
Down	-1723
FOR	-1724
GR	-1725
ied	-1726
ke	-1727
CHAN	-1728
Rot	-1729
2,	-1730
packageName	-1731
oci	-1732
▁fr	-1733
adding	-1734
▁called	-1735
ansition	-1736
▁read	-1737
Bundle	-1738
redential	-1739
CT	-1740
po	-1741
Duration	-1742
Reason	-1743
▁byte	-1744
boolean	-1745
load	-1746
aper	-1747
iometric	-1748
td	-1749
iled	-1750
wner	-1751
apab	-1752
Background	-1753
ollection	-1754
enter	-1755
easure	-1756
▁values	-1757
when	-1758
ark	-1759
upd	-1760
media	-1761
abel	-1762
text	-1763
rapp	-1764
ework	-1765
ority	-1766
Global	-1767
amework	-1768
▁index	-1769
▁enabled	-1770
UM	-1771
▁Parcel	-1772
urs	-1773
▁show	-1774
▁off	-1775
contains	-1776
precated	-1777
SYSTEM	-1778
lose	-1779
edBy	-1780
exp	-1781
DA	-1782
Resources	-1783
oll	-1784
Scroll	-1785
Android	-1786
dition	-1787
▁*/,	-1788
ector	-1789
▁Sh	-1790
▁message	-1791
Vibr	-1792
▁but	-1793
ures	-1794
Ac	-1795
TING	-1796
otionEvent	-1797
▁change	-1798
orage	-1799
Frag	-1800
AND	-1801
▁att	-1802
Check	-1803
▁Settings	-1804
▁status	-1805
ged	-1806
coroutines	-1807
▁handle	-1808
▁</	-1809
▁TAG	-1810
Battery	-1811
agn	-1812
line	-1813
state	-1814
rop	-1815
▁eq	-1816
allp	-1817
SERVICE	-1818
statusbar	-1819
Op	-1820
parse	-1821
▁Binder	-1822
▁kotlin	-1823
Float	-1824
ersist	-1825
Fragment	-1826
OUND	-1827
dk	-1828
Focus	-1829
▁per	-1830
hardware	-1831
ignal	-1832
Gesture	-1833
SCREEN	-1834
scri	-1835
fix	-1836
Click	-1837
Version	-1838
POR	-1839
DISPLAY	-1840
quence	-1841
gn	-1842
ponse	-1843
vo	-1844
▁Boolean	-1845
Broadcast	-1846
Properties	-1847
Are	-1848
OUR	-1849
▁File	-1850
Sup	-1851
No	-1852
RunWith	-1853
▁ass	-1854
dis	-1855
Launch	-1856
▁UserHandle	-1857
▁animation	-1858
▁man	-1859
allpaper	-1860
▁after	-1861
Overlay	-1862
Str	-1863
▁rece	-1864
Gr	-1865
wo	-1866
Factory	-1867
▁while	-1868
ailed	-1869
▁AP	-1870
MO	-1871
ACE	-1872
▁mD	-1873
Inject	-1874
▁mH	-1875
ise	-1876
comm	-1877
Node	-1878
aphics	-1879
mP	-1880
COMP	-1881
Fin	-1882
Max	-1883
elected	-1884
Backup	-1885
arri	-1886
BACK	-1887
air	-1888
Expand	-1889
▁top	-1890
check	-1891
ENABLE	-1892
Descriptor	-1893
irect	-1894
Location	-1895
TEST	-1896
Ret	-1897
lear	-1898
uggest	-1899
▁up	-1900
1.	-1901
update	-1902
Scene	-1903
UE	-1904
EXTRA	-1905
Compat	-1906
Identity	-1907
REAS	-1908
(0,	-1909
▁Device	-1910
wm	-1911
▁Not	-1912
Before	-1913
Writer	-1914
Guard	-1915
Application	-1916
INTER	-1917
):	-1918
LIS	-1919
▁color	-1920
The	-1921
service	-1922
Offset	-1923
filter	-1924
▁On	-1925
CESS	-1926
Values	-1927
)}	-1928
formation	-1929
ample	-1930
▁first	-1931
ursor	-1932
Shade	-1933
▁Media	-1934
▁remove	-1935
▁Bundle	-1936
REASON	-1937
graphics	-1938
UT	-1939
Ed	-1940
config	-1941
Ids	-1942
--------	-1943
ERR	-1944
Ops	-1945
rimary	-1946
▁x	-1947
▁position	-1948
long	-1949
Per	-1950
string	-1951
▁screen	-1952
▁icon	-1953
Rout	-1954
Rotation	-1955
Match	-1956
ension	-1957
arrier	-1958
irt	-1959
Resolver	-1960
ious	-1961
Cache	-1962
ForTesting	-1963
2.	-1964
irtual	-1965
▁builder	-1966
RA	-1967
11	-1968
▁>=	-1969
▁kotlinx	-1970
▁been	-1971
Sdk	-1972
ention	-1973
▁Run	-1974
init	-1975
Capture	-1976
▁field	-1977
BO	-1978
Char	-1979
OP	-1980
gion	-1981
Range	-1982
Attributes	-1983
▁last	-1984
widget	-1985
eg	-1986
[0	-1987
Monitor	-1988
▁array	-1989
Integer	-1990
▁parent	-1991
ZE	-1992
riction	-1993
▁det	-1994
Volume	-1995
Get	-1996
ERROR	-1997
go	-1998
▁lo	-1999
ater	-2000
▁Ch	-2001
ze	-2002
toString	-2003
▁dump	-2004
WOR	-2005
Valid	-2006
STAT	-2007
shot	-2008
Flow	-2009
nect	-2010
▁whether	-2011
Sync	-2012
_1	-2013
napshot	-2014
nected	-2015
▁profile	-2016
pend	-2017
omain	-2018
Rate	-2019
compose	-2020
ell	-2021
▁extr	-2022
WA	-2023
clear	-2024
quires	-2025
notification	-2026
Dispatch	-2027
▁item	-2028
arm	-2029
▁there	-2030
END	-2031
PRI	-2032
cer	-2033
umentation	-2034
word	-2035
rapper	-2036
ider	-2037
TRAN	-2038
onentName	-2039
OException	-2040
▁access	-2041
▁error	-2042
anim	-2043
Idle	-2044
device	-2045
GuardedBy	-2046
▁same	-2047
▁switch	-2048
Consumer	-2049
▁});	-2050
task	-2051
▁Res	-2052
▁min	-2053
▁before	-2054
▁rest	-2055
▁number	-2056
bug	-2057
▁its	-2058
▁height	-2059
▁Re	-2060
ManagerInternal	-2061
▁allow	-2062
RT	-2063
▁code	-2064
▁We	-2065
Holder	-2066
uble	-2067
Store	-2068
▁IllegalArgument	-2069
FIC	-2070
miss	-2071
Sequence	-2072
▁entry	-2073
▁};	-2074
▁sb	-2075
scription	-2076
Unsupported	-2077
DATA	-2078
▁token	-2079
▁write	-2080
Stack	-2081
▁STA	-2082
▁client	-2083
INDOW	-2084
Small	-2085
Running	-2086
▁lock	-2087
▁register	-2088
▁TEST	-2089
vious	-2090
ARD	-2091
RED	-2092
NT	-2093
max	-2094
▁layout	-2095
lip	-2096
▁",	-2097
Area	-2098
isEmpty	-2099
Menu	-2100
Zen	-2101
Style	-2102
▁application	-2103
hes	-2104
▁mT	-2105
MAN	-2106
▁pkg	-2107
settings	-2108
base	-2109
Constants	-2110
election	-2111
▁send	-2112
byte	-2113
ling	-2114
Native	-2115
▁ser	-2116
▁filter	-2117
Options	-2118
Play	-2119
VITY	-2120
ycle	-2121
ince	-2122
ways	-2123
Parent	-2124
vas	-2125
▁qu	-2126
Install	-2127
Description	-2128
oord	-2129
Finish	-2130
inal	-2131
LayoutParams	-2132
▁caller	-2133
ixel	-2134
▁Sc	-2135
JUnit	-2136
arch	-2137
uggestion	-2138
MIS	-2139
Parser	-2140
▁active	-2141
Pending	-2142
pu	-2143
Metrics	-2144
Do	-2145
uccess	-2146
Address	-2147
BIL	-2148
Resource	-2149
layout	-2150
*/	-2151
olumn	-2152
▁valid	-2153
riority	-2154
▁us	-2155
flow	-2156
REQU	-2157
▁bec	-2158
GED	-2159
eep	-2160
ved	-2161
window	-2162
entication	-2163
Create	-2164
Line	-2165
SU	-2166
stract	-2167
▁non	-2168
ofill	-2169
ViewModel	-2170
▁Text	-2171
Image	-2172
event	-2173
▁width	-2174
info	-2175
Bytes	-2176
▁Get	-2177
ecurity	-2178
Progress	-2179
▁late	-2180
istory	-2181
Next	-2182
ored	-2183
ingerprint	-2184
idd	-2185
strumentation	-2186
OURCE	-2187
ank	-2188
otal	-2189
utable	-2190
▁Input	-2191
eters	-2192
VERSION	-2193
xy	-2194
struct	-2195
AppUsage	-2196
model	-2197
FICATION	-2198
▁tag	-2199
Case	-2200
▁group	-2201
elet	-2202
Que	-2203
ISI	-2204
Interface	-2205
getS	-2206
LOCK	-2207
board	-2208
▁Task	-2209
anel	-2210
▁comm	-2211
Operation	-2212
Callbacks	-2213
mm	-2214
▁*/);	-2215
MAX	-2216
CALL	-2217
Dec	-2218
ails	-2219
reshold	-2220
▁specified	-2221
atform	-2222
Real	-2223
ased	-2224
Feature	-2225
WindowManager	-2226
▁buffer	-2227
▁Call	-2228
.");	-2229
▁pl	-2230
▁cor	-2231
▁interface	-2232
.</	-2233
▁record	-2234
▁resol	-2235
ier	-2236
▁old	-2237
▁initial	-2238
HE	-2239
UserHandle	-2240
▁'	-2241
Ime	-2242
▁Surface	-2243
▁rep	-2244
pkg	-2245
Min	-2246
▁provid	-2247
flags	-2248
▁associ	-2249
▁track	-2250
Services	-2251
▁ID	-2252
TOP	-2253
ging	-2254
pdated	-2255
▁mIs	-2256
active	-2257
mC	-2258
▁Builder	-2259
fr	-2260
reated	-2261
▁provider	-2262
Field	-2263
Dir	-2264
Metadata	-2265
Wrapper	-2266
Retention	-2267
PH	-2268
▁pass	-2269
▁ms	-2270
Stop	-2271
LOG	-2272
OT	-2273
aged	-2274
send	-2275
estamp	-2276
BILITY	-2277
[0]	-2278
▁0.	-2279
▁reason	-2280
▁job	-2281
▁launch	-2282
▁},	-2283
qs	-2284
▁then	-2285
Ass	-2286
imum	-2287
af	-2288
Am	-2289
igh	-2290
▁10	-2291
▁using	-2292
fresh	-2293
▁changed	-2294
SK	-2295
ready	-2296
Report	-2297
ayer	-2298
arge	-2299
▁now	-2300
▁available	-2301
Timeout	-2302
force	-2303
▁mHandler	-2304
acter	-2305
eq	-2306
Regist	-2307
wise	-2308
Print	-2309
DIO	-2310
Head	-2311
▁Access	-2312
▁proper	-2313
ouncer	-2314
Wake	-2315
Main	-2316
from	-2317
Storage	-2318
hone	-2319
FILE	-2320
VENT	-2321
Queue	-2322
style	-2323
▁wait	-2324
▁visible	-2325
000	-2326
▁201	-2327
Allowed	-2328
getString	-2329
ink	-2330
agnification	-2331
Packages	-2332
mService	-2333
STATUS	-2334
expected	-2335
Bluetooth	-2336
Element	-2337
jection	-2338
▁string	-2339
ATOR	-2340
ilities	-2341
▁DEFAULT	-2342
keyguard	-2343
ulti	-2344
ategory	-2345
?.	-2346
ferred	-2347
20	-2348
▁supported	-2349
ook	-2350
▁never	-2351
▁1,	-2352
Full	-2353
Port	-2354
irection	-2355
▁count	-2356
ComponentName	-2357
▁second	-2358
Views	-2359
23	-2360
Point	-2361
box	-2362
press	-2363
▁indic	-2364
▁network	-2365
{@	-2366
▁gener	-2367
▁assertFalse	-2368
mary	-2369
index	-2370
lation	-2371
SmallTest	-2372
Split	-2373
cre	-2374
VALID	-2375
▁offset	-2376
▁exist	-2377
▁orig	-2378
▁auth	-2379
KN	-2380
▁{}	-2381
▁media	-2382
Dispatcher	-2383
Switch	-2384
▁PackageManager	-2385
CL	-2386
Types	-2387
Scale	-2388
WORK	-2389
Available	-2390
oreground	-2391
ingle	-2392
▁format	-2393
KNOWN	-2394
▁bounds	-2395
throws	-2396
Auto	-2397
ecycle	-2398
rix	-2399
apabilities	-2400
WINDOW	-2401
▁finish	-2402
__	-2403
Widget	-2404
ia	-2405
MIN	-2406
request	-2407
▁make	-2408
▁Integer	-2409
shared	-2410
▁KEY	-2411
Secure	-2412
vers	-2413
El	-2414
should	-2415
attern	-2416
ifecycle	-2417
ulate	-2418
so	-2419
▁thread	-2420
activity	-2421
Number	-2422
Requires	-2423
Names	-2424
imp	-2425
atio	-2426
TATION	-2427
▁abstract	-2428
ature	-2429
VISI	-2430
▁z	-2431
▁aut	-2432
erg	-2433
net	-2434
Bubble	-2435
PRE	-2436
▁flag	-2437
float	-2438
width	-2439
gram	-2440
▁audio	-2441
Property	-2442
Wifi	-2443
ALLOW	-2444
▁component	-2445
▁match	-2446
▁attribut	-2447
nown	-2448
Listeners	-2449
yped	-2450
Complet	-2451
▁Transition	-2452
do	-2453
▁parcel	-2454
▁support	-2455
Disabled	-2456
isTrue	-2457
orm	-2458
ULL	-2459
Alpha	-2460
igation	-2461
Started	-2462
▁changes	-2463
▁next	-2464
▁into	-2465
Camera	-2466
▁-1	-2467
▁For	-2468
▁whenever	-2469
with	-2470
input	-2471
Ver	-2472
EL	-2473
▁GL	-2474
OWER	-2475
▁Pre	-2476
((	-2477
essages	-2478
alc	-2479
locked	-2480
▁being	-2481
just	-2482
idden	-2483
▁part	-2484
SP	-2485
Span	-2486
atrix	-2487
Account	-2488
▁implements	-2489
legate	-2490
Left	-2491
▁notify	-2492
Rad	-2493
cod	-2494
▁dec	-2495
▁root	-2496
()}	-2497
chedule	-2498
▁mDisplay	-2499
▁stream	-2500
▁msg	-2501
▁reset	-2502
AndroidJUnit	-2503
Row	-2504
TENT	-2505
Delay	-2506
unal	-2507
▁policy	-2508
▁testScope	-2509
Measure	-2510
Command	-2511
ACTIVITY	-2512
FE	-2513
00,	-2514
esk	-2515
its	-2516
Events	-2517
STR	-2518
▁ident	-2519
Pip	-2520
ENABLED	-2521
ived	-2522
Order	-2523
Extra	-2524
Owner	-2525
ches	-2526
▁sensor	-2527
▁because	-2528
oordin	-2529
▁FLAG	-2530
lot	-2531
SS	-2532
ead	-2533
▁already	-2534
shell	-2535
SIZE	-2536
ecute	-2537
>>	-2538
Supported	-2539
common	-2540
Bitmap	-2541
Padding	-2542
straint	-2543
▁Objects	-2544
esktop	-2545
ideo	-2546
OC	-2547
ization	-2548
aining	-2549
▁TOD	-2550
▁TODO	-2551
att	-2552
Cec	-2553
RIG	-2554
Apps	-2555
▁args	-2556
Signal	-2557
hand	-2558
trans	-2559
hot	-2560
UI	-2561
▁previous	-2562
inst	-2563
Realtime	-2564
====	-2565
▁finally	-2566
▁Sets	-2567
Base	-2568
▁%	-2569
▁Ad	-2570
UNKNOWN	-2571
een	-2572
runner	-2573
(2	-2574
▁Handler	-2575
isFalse	-2576
mMock	-2577
▁ComponentName	-2578
NOT	-2579
55	-2580
▁Keyguard	-2581
Parcelable	-2582
NONE	-2583
Zone	-2584
▁mTest	-2585
▁IN	-2586
▁output	-2587
After	-2588
iffer	-2589
▁gr	-2590
▁times	-2591
NotNull	-2592
▁keyguard	-2593
ice	-2594
▁mUser	-2595
▁associated	-2596
▁version	-2597
▁connection	-2598
uri	-2599
▁stop	-2600
▁information	-2601
▁events	-2602
MAT	-2603
▁Accessibility	-2604
\"	-2605
Bottom	-2606
Ext	-2607
runTest	-2608
intent	-2609
Host	-2610
Dim	-2611
Label	-2612
Pl	-2613
apply	-2614
drawable	-2615
Failed	-2616
▁Local	-2617
Server	-2618
unction	-2619
Credential	-2620
▁collect	-2621
SOURCE	-2622
Assert	-2623
Mem	-2624
MIL	-2625
▁load	-2626
CHANGED	-2627
ummary	-2628
MISSION	-2629
CallingIdentity	-2630
lease	-2631
store	-2632
▁over	-2633
▁local	-2634
▁Math	-2635
▁than	-2636
Pull	-2637
▁contin	-2638
Enable	-2639
////	-2640
licker	-2641
].	-2642
atic	-2643
uring	-2644
▁includ	-2645
▁Sparse	-2646
▁num	-2647
10	-2648
▁clear	-2649
▁Fr	-2650
styleable	-2651
trs	-2652
TRIC	-2653
ContentResolver	-2654
Ready	-2655
ture	-2656
▁It	-2657
▁parser	-2658
ful	-2659
Ag	-2660
TRANS	-2661
▁()	-2662
FT	-2663
pol	-2664
ended	-2665
▁settings	-2666
uture	-2667
▁TY	-2668
▁mLast	-2669
▁focus	-2670
EVENT	-2671
Bind	-2672
ced	-2673
ASS	-2674
▁TYPE	-2675
Debug	-2676
▁find	-2677
SystemService	-2678
▁op	-2679
Initial	-2680
▁cl	-2681
avigation	-2682
Transport	-2683
format	-2684
rc	-2685
()))	-2686
Trace	-2687
vok	-2688
target	-2689
TIMEOUT	-2690
Response	-2691
reens	-2692
hav	-2693
States	-2694
ensity	-2695
Draw	-2696
Permissions	-2697
Sys	-2698
NOTI	-2699
Ab	-2700
IP	-2701
▁function	-2702
FIN	-2703
MILLIS	-2704
uck	-2705
GROUND	-2706
LED	-2707
ORY	-2708
StateException	-2709
ped	-2710
▁lateinit	-2711
SystemApi	-2712
sub	-2713
▁play	-2714
Caller	-2715
ifferent	-2716
▁frame	-2717
listener	-2718
Restriction	-2719
▁Mock	-2720
provider	-2721
StateController	-2722
Gener	-2723
▁Service	-2724
Vibration	-2725
▁instead	-2726
**	-2727
_2	-2728
▁path	-2729
mpt	-2730
▁more	-2731
InputStream	-2732
result	-2733
▁report	-2734
▁str	-2735
><	-2736
ternal	-2737
POWER	-2738
roy	-2739
▁controller	-2740
ries	-2741
▁returned	-2742
IFI	-2743
START	-2744
▁duration	-2745
ners	-2746
▁Float	-2747
Wh	-2748
COUN	-2749
havi	-2750
▁proto	-2751
▁empty	-2752
gnore	-2753
64	-2754
Interaction	-2755
▁level	-2756
RIGHT	-2757
Allow	-2758
▁USER	-2759
lang	-2760
omatic	-2761
ATURE	-2762
New	-2763
(()	-2764
▁params	-2765
callback	-2766
▁Uri	-2767
etter	-2768
be	-2769
pect	-2770
rient	-2771
▁down	-2772
Deprecated	-2773
anizer	-2774
mS	-2775
BY	-2776
▁As	-2777
▁fail	-2778
require	-2779
56	-2780
agger	-2781
Pointer	-2782
VALUE	-2783
lib	-2784
Throw	-2785
▁invalid	-2786
▁_	-2787
Activ	-2788
ForUser	-2789
elete	-2790
animation	-2791
kip	-2792
Actions	-2793
Hash	-2794
▁configuration	-2795
RENT	-2796
SETTING	-2797
Admin	-2798
rec	-2799
▁effect	-2800
show	-2801
CAP	-2802
fined	-2803
Cor	-2804
anion	-2805
PullParser	-2806
rientation	-2807
▁background	-2808
Requested	-2809
OutputStream	-2810
50	-2811
▁right	-2812
arning	-2813
88	-2814
EventLogger	-2815
requ	-2816
havior	-2817
IGHT	-2818
ross	-2819
▁continue	-2820
ultip	-2821
TestCase	-2822
Shared	-2823
▁anyInt	-2824
gor	-2825
▁channel	-2826
▁init	-2827
▁camera	-2828
Wallpaper	-2829
▁RemoteException	-2830
▁apply	-2831
EW	-2832
off	-2833
ById	-2834
ptional	-2835
▁Char	-2836
bient	-2837
Org	-2838
verify	-2839
▁handler	-2840
ius	-2841
ARY	-2842
Length	-2843
Query	-2844
COL	-2845
Threshold	-2846
▁since	-2847
▁ret	-2848
TEX	-2849
Elapsed	-2850
▁power	-2851
Suppress	-2852
ertific	-2853
▁row	-2854
CODES	-2855
▁Camera	-2856
argin	-2857
obtain	-2858
ta	-2859
Header	-2860
Preference	-2861
(0);	-2862
pw	-2863
▁+=	-2864
Only	-2865
▁Process	-2866
TIC	-2867
gorith	-2868
▁const	-2869
▁line	-2870
Delegate	-2871
domain	-2872
Parameter	-2873
core	-2874
Def	-2875
▁displayId	-2876
FileDescriptor	-2877
▁left	-2878
TimeMillis	-2879
AUDIO	-2880
acing	-2881
▁Hdmi	-2882
Found	-2883
▁full	-2884
ipe	-2885
next	-2886
Drag	-2887
Alarm	-2888
Biometric	-2889
structor	-2890
▁Time	-2891
Suggestion	-2892
▁Xml	-2893
▁underTest	-2894
▁represent	-2895
▁IOException	-2896
▁broadcast	-2897
ired	-2898
▁surface	-2899
▁dialog	-2900
Num	-2901
COUNT	-2902
writeInt	-2903
rup	-2904
Runnable	-2905
TEXT	-2906
obile	-2907
etween	-2908
ditions	-2909
oriz	-2910
▁perform	-2911
Right	-2912
▁stats	-2913
Proxy	-2914
vision	-2915
Region	-2916
▁removed	-2917
Infos	-2918
▁Build	-2919
Locale	-2920
Ratio	-2921
annotations	-2922
▁MotionEvent	-2923
getPackageName	-2924
PrintWriter	-2925
reenshot	-2926
▁currently	-2927
Orientation	-2928
capture	-2929
aring	-2930
ricted	-2931
ucket	-2932
Expanded	-2933
Second	-2934
readInt	-2935
▁open	-2936
▁touch	-2937
ToString	-2938
Byte	-2939
ynam	-2940
rect	-2941
gre	-2942
▁Parcelable	-2943
Can	-2944
access	-2945
History	-2946
ibration	-2947
When	-2948
ugin	-2949
itive	-2950
imple	-2951
versation	-2952
▁pos	-2953
Injector	-2954
▁kosmos	-2955
PERMISSION	-2956
Pkg	-2957
▁bottom	-2958
java	-2959
▁cancel	-2960
Over	-2961
>{@	-2962
NET	-2963
space	-2964
INFO	-2965
ynamic	-2966
licationInfo	-2967
ANCE	-2968
vert	-2969
height	-2970
▁setting	-2971
Instrumentation	-2972
Trigger	-2973
▁2;	-2974
▁order	-2975
▁rot	-2976
URATION	-2977
▁instanceof	-2978
Prot	-2979
▁setUp	-2980
▁Po	-2981
Stub	-2982
Shell	-2983
Registry	-2984
Layer	-2985
▁apps	-2986
ota	-2987
light	-2988
GET	-2989
rem	-2990
TaskInfo	-2991
ultiple	-2992
Cpu	-2993
RESULT	-2994
NOTIFICATION	-2995
lect	-2996
CONFI	-2997
left	-2998
order	-2999
ination	-3000
process	-3001
Extras	-3002
▁operation	-3003
▁draw	-3004
▁direct	-3005
▁also	-3006
▁Fake	-3007
PORT	-3008
▁main	-3009
can	-3010
READ	-3011
plied	-3012
Title	-3013
ENS	-3014
uspend	-3015
Scan	-3016
Attribute	-3017
elta	-3018
▁-1;	-3019
assword	-3020
endingIntent	-3021
ogle	-3022
AST	-3023
post	-3024
0000	-3025
AV	-3026
hys	-3027
▁location	-3028
apping	-3029
VIEW	-3030
ocument	-3031
dump	-3032
aven	-3033
Dump	-3034
TextView	-3035
▁Map	-3036
Load	-3037
▁otherwise	-3038
HEN	-3039
find	-3040
▁actual	-3041
▁always	-3042
OVER	-3043
Annot	-3044
▁char	-3045
▁ed	-3046
orizont	-3047
▁Wh	-3048
ViewById	-3049
▁query	-3050
Has	-3051
▁running	-3052
▁IBinder	-3053
EC	-3054
Capabilities	-3055
derTest	-3056
32	-3057
▁capture	-3058
az	-3059
veInfo	-3060
▁When	-3061
▁where	-3062
Post	-3063
ments	-3064
CONTENT	-3065
gorithm	-3066
Use	-3067
StateChanged	-3068
▁control	-3069
sUp	-3070
Em	-3071
SUP	-3072
Work	-3073
▁me	-3074
LICY	-3075
▁$	-3076
google	-3077
ategy	-3078
reator	-3079
▁mDevice	-3080
pdates	-3081
DED	-3082
token	-3083
▁2024	-3084
▁allowed	-3085
no	-3086
▁map	-3087
70	-3088
rie	-3089
TROL	-3090
Stand	-3091
Fail	-3092
ignature	-3093
voked	-3094
▁scroll	-3095
chedul	-3096
()));	-3097
Present	-3098
_1,	-3099
Infl	-3100
ogn	-3101
▁requested	-3102
ChangeListener	-3103
Route	-3104
▁executor	-3105
▁descri	-3106
ocity	-3107
Invalid	-3108
▁element	-3109
Pid	-3110
ned	-3111
▁Anim	-3112
Showing	-3113
ressed	-3114
▁complet	-3115
/*	-3116
gle	-3117
ArrayList	-3118
Changes	-3119
▁Check	-3120
[1	-3121
aved	-3122
Reader	-3123
TASK	-3124
Light	-3125
▁Rec	-3126
Finished	-3127
atell	-3128
▁Q	-3129
▁enable	-3130
▁En	-3131
getInt	-3132
▁each	-3133
aces	-3134
Removed	-3135
InputMethod	-3136
deprecated	-3137
MotionEvent	-3138
▁Use	-3139
ther	-3140
▁don	-3141
▁STATE	-3142
roug	-3143
mark	-3144
We	-3145
umentCaptor	-3146
DOWN	-3147
queue	-3148
avity	-3149
1);	-3150
▁Config	-3151
licit	-3152
NAL	-3153
▁Note	-3154
▁setup	-3155
▁API	-3156
▁CharSequence	-3157
▁provided	-3158
AUTO	-3159
▁mCurrent	-3160
▁account	-3161
known	-3162
▁build	-3163
polator	-3164
▁Long	-3165
▁ArrayMap	-3166
ability	-3167
atellite	-3168
>()	-3169
REAM	-3170
Tasks	-3171
eline	-3172
ration	-3173
Imp	-3174
DR	-3175
ecure	-3176
Init	-3177
LY	-3178
eek	-3179
▁returns	-3180
▁work	-3181
Loader	-3182
Devices	-3183
▁|=	-3184
▁point	-3185
Block	-3186
ediate	-3187
session	-3188
SITION	-3189
▁owner	-3190
▁<=	-3191
Connected	-3192
timeException	-3193
▁created	-3194
Need	-3195
▁button	-3196
▁Called	-3197
Bouncer	-3198
transition	-3199
DATE	-3200
Organizer	-3201
cent	-3202
CONFIG	-3203
▁mActivity	-3204
▁they	-3205
TIVE	-3206
rough	-3207
color	-3208
parent	-3209
Identifier	-3210
PROFILE	-3211
wood	-3212
▁def	-3213
CUR	-3214
avenwood	-3215
getValue	-3216
▁between	-3217
▁different	-3218
PUT	-3219
▁mV	-3220
Paint	-3221
orizontal	-3222
Authentication	-3223
du	-3224
Notifications	-3225
rinter	-3226
▁here	-3227
▁UID	-3228
▁trigger	-3229
CONNE	-3230
Limit	-3231
Render	-3232
▁cons	-3233
ixed	-3234
ansion	-3235
▁desc	-3236
▁options	-3237
AI	-3238
Magnification	-3239
▁added	-3240
30	-3241
▁Color	-3242
ely	-3243
▁ArraySet	-3244
idl	-3245
sible	-3246
rivacy	-3247
▁Content	-3248
Keys	-3249
MEDI	-3250
Dismiss	-3251
ular	-3252
ializer	-3253
ONENT	-3254
▁Hash	-3255
VISIBLE	-3256
Space	-3257
CONTROL	-3258
▁dispatch	-3259
Detector	-3260
▁Battery	-3261
hing	-3262
rength	-3263
():	-3264
requireNonNull	-3265
[]{	-3266
pare	-3267
Lockscreen	-3268
▁ens	-3269
SED	-3270
▁some	-3271
Decor	-3272
arsed	-3273
elocity	-3274
endor	-3275
▁bind	-3276
(/*	-3277
Open	-3278
ber	-3279
▁double	-3280
▁exception	-3281
FoundException	-3282
▁Power	-3283
Persist	-3284
icture	-3285
mit	-3286
pond	-3287
requency	-3288
artspace	-3289
80	-3290
getDisplay	-3291
▁am	-3292
Fake	-3293
first	-3294
Pair	-3295
▁image	-3296
oice	-3297
POLICY	-3298
Restore	-3299
AsUser	-3300
atest	-3301
Details	-3302
▁Runnable	-3303
"),	-3304
▁internal	-3305
▁about	-3306
▁rule	-3307
AppOps	-3308
▁Arg	-3309
prefix	-3310
▁progress	-3311
leton	-3312
Panel	-3313
Module	-3314
▁timeout	-3315
▁UI	-3316
29	-3317
Hdmi	-3318
▁1);	-3319
leep	-3320
Runner	-3321
▁KeyEvent	-3322
PORTED	-3323
ertificate	-3324
ancell	-3325
policy	-3326
Args	-3327
Date	-3328
REQUEST	-3329
oroutine	-3330
iometrics	-3331
Build	-3332
▁SurfaceControl	-3333
filters	-3334
▁success	-3335
settingslib	-3336
Step	-3337
IME	-3338
job	-3339
wipe	-3340
rethrow	-3341
platform	-3342
▁shortcut	-3343
gin	-3344
▁callingUid	-3345
lice	-3346
▁cache	-3347
afe	-3348
cn	-3349
Select	-3350
uner	-3351
▁disabled	-3352
SystemServer	-3353
▁split	-3354
▁remote	-3355
▁install	-3356
hysical	-3357
OME	-3358
Collection	-3359
feren	-3360
▁Back	-3361
DISABLE	-3362
▁length	-3363
Messages	-3364
▁doReturn	-3365
(1,	-3366
Face	-3367
MENT	-3368
ides	-3369
Libr	-3370
FULL	-3371
Required	-3372
▁post	-3373
ormal	-3374
etterbox	-3375
Vibrator	-3376
▁devices	-3377
24	-3378
TT	-3379
ATEG	-3380
getCalling	-3381
ume	-3382
INSTA	-3383
bind	-3384
PAR	-3385
child	-3386
stream	-3387
mDisplay	-3388
▁scale	-3389
IBinder	-3390
Hint	-3391
Matchers	-3392
apability	-3393
▁em	-3394
▁1)	-3395
▁extras	-3396
title	-3397
~~	-3398
LastValue	-3399
▁PRO	-3400
NETWORK	-3401
2);	-3402
▁doesn	-3403
COND	-3404
OFF	-3405
TIAL	-3406
▁Network	-3407
90	-3408
AX	-3409
displayId	-3410
▁X	-3411
Font	-3412
eatures	-3413
ACT	-3414
▁go	-3415
▁found	-3416
▁container	-3417
▁sm	-3418
3,	-3419
ven	-3420
▁");	-3421
SUB	-3422
Translation	-3423
SPE	-3424
▁<<	-3425
▁Mockito	-3426
This	-3427
Character	-3428
Assist	-3429
OUP	-3430
▁gl	-3431
▁mView	-3432
<>(	-3433
MANAG	-3434
Projection	-3435
▁Mod	-3436
▁J	-3437
telephony	-3438
interactor	-3439
second	-3440
underTest	-3441
▁still	-3442
▁Proto	-3443
launch	-3444
Custom	-3445
OLD	-3446
KeyEvent	-3447
StatsLog	-3448
▁original	-3449
▁delay	-3450
getName	-3451
▁By	-3452
ward	-3453
Lifecycle	-3454
DisplayArea	-3455
COMPONENT	-3456
ually	-3457
Priority	-3458
Refresh	-3459
GEST	-3460
CRE	-3461
DeviceConfig	-3462
▁attrs	-3463
▁updated	-3464
▁want	-3465
ragment	-3466
▁overlay	-3467
Pin	-3468
eta	-3469
dp	-3470
Pixel	-3471
Unlock	-3472
ChangedListener	-3473
Warning	-3474
Telephony	-3475
Theme	-3476
LI	-3477
ique	-3478
dr	-3479
Users	-3480
wh	-3481
▁Job	-3482
accessibility	-3483
SA	-3484
ily	-3485
StateFlow	-3486
man	-3487
5,	-3488
Static	-3489
Cl	-3490
▁calls	-3491
▁started	-3492
"));	-3493
▁Layout	-3494
pn	-3495
Parameters	-3496
itud	-3497
CES	-3498
(1);	-3499
▁custom	-3500
used	-3501
INVALID	-3502
▁200	-3503
Notif	-3504
dispatch	-3505
KEYCODE	-3506
Snapshot	-3507
▁range	-3508
osed	-3509
plier	-3510
Indic	-3511
default	-3512
Each	-3513
dent	-3514
notify	-3515
▁such	-3516
Pattern	-3517
Temp	-3518
mplate	-3519
▁volume	-3520
ux	-3521
...	-3522
Write	-3523
estroy	-3524
ergency	-3525
Rel	-3526
▁16	-3527
ounter	-3528
▁pending	-3529
Quota	-3530
▁contains	-3531
▁SparseArray	-3532
ole	-3533
aver	-3534
16	-3535
ACTIVE	-3536
handle	-3537
odec	-3538
Children	-3539
ND	-3540
KED	-3541
▁port	-3542
istics	-3543
valueAt	-3544
"))	-3545
12	-3546
FromSystemServer	-3547
cur	-3548
ement	-3549
Typed	-3550
sb	-3551
Should	-3552
getResources	-3553
▁via	-3554
Carrier	-3555
ORI	-3556
cancel	-3557
Foreground	-3558
CUS	-3559
ORT	-3560
tile	-3561
side	-3562
ClickListener	-3563
ZenMode	-3564
TOM	-3565
Shortcuts	-3566
Provid	-3567
▁Do	-3568
▁Whether	-3569
GL	-3570
▁constructor	-3571
ape	-3572
▁Gets	-3573
▁ent	-3574
Selection	-3575
ONG	-3576
▁cannot	-3577
mmediate	-3578
CY	-3579
▁StatusBar	-3580
hash	-3581
▁ensure	-3582
▁2,	-3583
heme	-3584
Subscription	-3585
Pos	-3586
▁ArgumentCaptor	-3587
Exit	-3588
▁admin	-3589
lus	-3590
▁})	-3591
Disable	-3592
▁`	-3593
▁rel	-3594
mode	-3595
▁selected	-3596
overy	-3597
redic	-3598
▁manager	-3599
cheduler	-3600
▁implementation	-3601
Dimension	-3602
▁sync	-3603
anyInt	-3604
getId	-3605
ferences	-3606
▁packages	-3607
ench	-3608
visible	-3609
▁Aut	-3610
iff	-3611
Fingerprint	-3612
▁example	-3613
">	-3614
Cancel	-3615
▁Telephony	-3616
point	-3617
tag	-3618
IOException	-3619
▁just	-3620
Cap	-3621
▁Broadcast	-3622
▁resource	-3623
----------------	-3624
ORITY	-3625
mIs	-3626
Proc	-3627
▁MS	-3628
ancellation	-3629
Selected	-3630
Complete	-3631
enable	-3632
▁Al	-3633
close	-3634
gedApi	-3635
lf	-3636
alculate	-3637
▁feature	-3638
▁uri	-3639
ero	-3640
META	-3641
DURATION	-3642
▁Bluetooth	-3643
▁total	-3644
▁during	-3645
iod	-3646
DO	-3647
▁Att	-3648
concurrent	-3649
One	-3650
enchmark	-3651
restore	-3652
Category	-3653
FromParcel	-3654
▁2023	-3655
aut	-3656
▁drawable	-3657
SurfaceControl	-3658
going	-3659
Nan	-3660
)}.	-3661
utout	-3662
VEL	-3663
bottom	-3664
▁through	-3665
▁Configuration	-3666
getSystemService	-3667
Recent	-3668
ECT	-3669
try	-3670
REMO	-3671
Security	-3672
source	-3673
repository	-3674
▁Data	-3675
Needed	-3676
Register	-3677
▁mMock	-3678
▁expand	-3679
ingleton	-3680
Leg	-3681
▁activ	-3682
Watch	-3683
▁present	-3684
▁li	-3685
Strategy	-3686
conditions	-3687
▁would	-3688
ollow	-3689
▁extra	-3690
Primary	-3691
DEX	-3692
External	-3693
attr	-3694
LABLE	-3695
Section	-3696
ases	-3697
Interpolator	-3698
})	-3699
Legacy	-3700
33	-3701
Trust	-3702
▁receiver	-3703
TimeMs	-3704
Updated	-3705
TaskFragment	-3706
▁Add	-3707
HeadsUp	-3708
▁transaction	-3709
DeviceInfo	-3710
execute	-3711
voke	-3712
fake	-3713
▁base	-3714
▁response	-3715
▁Bitmap	-3716
Quick	-3717
resol	-3718
],	-3719
elf	-3720
Radius	-3721
▁MSG	-3722
▁To	-3723
last	-3724
▁shared	-3725
FlaggedApi	-3726
kosmos	-3727
Agent	-3728
ognition	-3729
First	-3730
▁host	-3731
▁methods	-3732
MEDIA	-3733
▁without	-3734
▁Security	-3735
▁happ	-3736
apsedRealtime	-3737
report	-3738
framework	-3739
SHA	-3740
▁single	-3741
▁tile	-3742
OTH	-3743
▁0.0	-3744
itude	-3745
▁);	-3746
dagger	-3747
trace	-3748
PROCESS	-3749
▁property	-3750
▁Sp	-3751
RetentionPolicy	-3752
]);	-3753
position	-3754
tp	-3755
ASE	-3756
urations	-3757
Authentic	-3758
esired	-3759
respond	-3760
▁ref	-3761
ToParcel	-3762
Program	-3763
Algorithm	-3764
)));	-3765
▁views	-3766
▁Drawable	-3767
FIX	-3768
Remove	-3769
Timestamp	-3770
▁until	-3771
ATEGORY	-3772
ern	-3773
▁column	-3774
BI	-3775
▁sent	-3776
▁runCurrent	-3777
wait	-3778
60	-3779
▁canvas	-3780
▁mCallback	-3781
ifies	-3782
control	-3783
Margin	-3784
KG	-3785
ientation	-3786
AVAI	-3787
getC	-3788
Constraint	-3789
Usb	-3790
▁All	-3791
MPOR	-3792
FORE	-3793
uiTestCase	-3794
nectivity	-3795
FEATURE	-3796
Expansion	-3797
▁resources	-3798
Objects	-3799
▁describ	-3800
").	-3801
▁based	-3802
Detection	-3803
▁mA	-3804
Player	-3805
▁animate	-3806
".	-3807
40	-3808
MM	-3809
LEVEL	-3810
▁Collection	-3811
GROUP	-3812
igest	-3813
allow	-3814
▁sure	-3815
▁defined	-3816
▁fake	-3817
boot	-3818
▁bar	-3819
Added	-3820
OLU	-3821
her	-3822
Recording	-3823
LIN	-3824
Latch	-3825
TimeZone	-3826
▁them	-3827
TargetSdk	-3828
▁rect	-3829
ie	-3830
rott	-3831
▁Trans	-3832
VATE	-3833
legacy	-3834
99	-3835
uc	-3836
Grant	-3837
group	-3838
getKey	-3839
Autofill	-3840
Virtual	-3841
ameworkStatsLog	-3842
enabled	-3843
4.	-3844
getUserId	-3845
spec	-3846
igning	-3847
▁bytes	-3848
reset	-3849
WAKE	-3850
▁cursor	-3851
TextUtils	-3852
ribute	-3853
Strength	-3854
now	-3855
▁rotation	-3856
emplate	-3857
adow	-3858
ibrator	-3859
install	-3860
▁command	-3861
▁results	-3862
Bl	-3863
LIST	-3864
azy	-3865
ingMode	-3866
IntDef	-3867
UPDATE	-3868
ArgumentMatchers	-3869
Summary	-3870
Interrup	-3871
UserIdInt	-3872
▁PendingIntent	-3873
alth	-3874
▁Executor	-3875
greg	-3876
▁types	-3877
andom	-3878
Direction	-3879
▁bitmap	-3880
Timer	-3881
Instant	-3882
bed	-3883
ierarch	-3884
fir	-3885
UB	-3886
GU	-3887
ApplicationInfo	-3888
▁brightness	-3889
vide	-3890
▁av	-3891
▁No	-3892
ening	-3893
down	-3894
gl	-3895
EXT	-3896
Arrays	-3897
Sender	-3898
atches	-3899
ENTATION	-3900
scene	-3901
verrides	-3902
rivile	-3903
ASK	-3904
SHOW	-3905
AVAILABLE	-3906
Direct	-3907
▁within	-3908
NESS	-3909
Short	-3910
▁ACTION	-3911
Multi	-3912
PL	-3913
URI	-3914
Reference	-3915
())).	-3916
▁StringBuilder	-3917
igned	-3918
pth	-3919
Hub	-3920
▁alpha	-3921
ution	-3922
▁bel	-3923
Password	-3924
▁ow	-3925
▁mData	-3926
eliver	-3927
▁Image	-3928
pectRatio	-3929
ols	-3930
method	-3931
ATTER	-3932
INTENT	-3933
CTED	-3934
isEnabled	-3935
DEFIN	-3936
Enum	-3937
adio	-3938
BAR	-3939
pip	-3940
▁two	-3941
LOW	-3942
msg	-3943
ryp	-3944
▁mO	-3945
▁their	-3946
ech	-3947
▁oc	-3948
Dream	-3949
ident	-3950
vocation	-3951
ET	-3952
fold	-3953
▁correspond	-3954
nss	-3955
▁model	-3956
▁failed	-3957
FER	-3958
▁menu	-3959
▁mController	-3960
Reset	-3961
BR	-3962
Items	-3963
Installer	-3964
▁primary	-3965
admin	-3966
▁close	-3967
CESSI	-3968
▁pixel	-3969
▁mR	-3970
▁shade	-3971
PolicyManager	-3972
angle	-3973
Async	-3974
ELD	-3975
Colors	-3976
▁mState	-3977
UserManager	-3978
pace	-3979
Large	-3980
allback	-3981
▁pid	-3982
power	-3983
▁registered	-3984
biometrics	-3985
firm	-3986
Future	-3987
▁Print	-3988
▁drag	-3989
Low	-3990
}</	-3991
Collect	-3992
assertThat	-3993
UNCH	-3994
Amount	-3995
▁again	-3996
extr	-3997
inject	-3998
Any	-3999
▁mApp	-4000
item	-4001
▁shown	-4002
compat	-4003
xml	-4004
tim	-4005
enes	-4006
CATEGORY	-4007
▁print	-4008
camera	-4009
Mask	-4010
▁MAX	-4011
DEFINED	-4012
▁force	-4013
▁battery	-4014
▁12	-4015
▁selection	-4016
ActivityManager	-4017
Enter	-4018
Bug	-4019
▁Byte	-4020
Bound	-4021
sumed	-4022
▁names	-4023
Controls	-4024
Expected	-4025
ierarchy	-4026
sensor	-4027
▁follow	-4028
ESSAGE	-4029
collect	-4030
RESTRIC	-4031
CESSIBILITY	-4032
Modes	-4033
calling	-4034
▁bubble	-4035
78	-4036
▁mem	-4037
ivider	-4038
message	-4039
BL	-4040
REC	-4041
ifiers	-4042
▁Arrays	-4043
▁ApplicationInfo	-4044
MSG	-4045
lex	-4046
full	-4047
▁high	-4048
Ref	-4049
▁backup	-4050
Home	-4051
Matrix	-4052
▁widget	-4053
▁IME	-4054
Aff	-4055
MARY	-4056
Vert	-4057
getContext	-4058
14	-4059
Search	-4060
mmediately	-4061
SETTINGS	-4062
ret	-4063
HAND	-4064
gine	-4065
▁WindowManager	-4066
ref	-4067
flag	-4068
▁usage	-4069
PA	-4070
19	-4071
INPUT	-4072
runners	-4073
Inflater	-4074
ServiceInfo	-4075
getBoolean	-4076
make	-4077
▁mSession	-4078
Failure	-4079
ypass	-4080
▁mW	-4081
ous	-4082
▁title	-4083
▁users	-4084
ENSOR	-4085
▁existing	-4086
▁prefix	-4087
▁tracking	-4088
▁bundle	-4089
component	-4090
▁starting	-4091
Navigation	-4092
MI	-4093
MATCH	-4094
15	-4095
SIG	-4096
▁ViewGroup	-4097
!!	-4098
>,	-4099
Function	-4100
Save	-4101
cluded	-4102
GESTURE	-4103
Sparse	-4104
▁expect	-4105
▁passed	-4106
▁Ver	-4107
▁Trace	-4108
OG	-4109
earch	-4110
Playback	-4111
Protection	-4112
phone	-4113
▁timestamp	-4114
▁Shortcut	-4115
MPORTA	-4116
25	-4117
Bucket	-4118
45	-4119
DIRE	-4120
ators	-4121
NodeInfo	-4122
▁parameter	-4123
Free	-4124
▁Pair	-4125
Annotations	-4126
▁toString	-4127
▁callbacks	-4128
final	-4129
Cursor	-4130
dim	-4131
cler	-4132
STile	-4133
▁move	-4134
▁SC	-4135
ories	-4136
▁parse	-4137
rict	-4138
empty	-4139
GER	-4140
eop	-4141
crement	-4142
▁Create	-4143
▁snapshot	-4144
▁stack	-4145
▁mWindow	-4146
eople	-4147
▁oper	-4148
arter	-4149
place	-4150
Keyboard	-4151
▁Capture	-4152
Tv	-4153
copy	-4154
▁observer	-4155
stop	-4156
dec	-4157
ableBundle	-4158
reates	-4159
ane	-4160
Activities	-4161
bedd	-4162
Chip	-4163
record	-4164
Managed	-4165
ENCY	-4166
▁needs	-4167
▁gesture	-4168
UsageStats	-4169
ox	-4170
Unt	-4171
utils	-4172
ResId	-4173
stants	-4174
gnored	-4175
parser	-4176
▁could	-4177
ari	-4178
sol	-4179
▁javax	-4180
▁keys	-4181
▁ren	-4182
▁multiple	-4183
▁once	-4184
PRES	-4185
ESSION	-4186
▁label	-4187
AME	-4188
▁center	-4189
▁Message	-4190
▁subscription	-4191
_0	-4192
fps	-4193
SPEC	-4194
00;	-4195
EM	-4196
Adj	-4197
Edge	-4198
CHANGE	-4199
▁insets	-4200
FOREGROUND	-4201
▁AT	-4202
writ	-4203
UTE	-4204
earance	-4205
version	-4206
that	-4207
connect	-4208
Pres	-4209
▁block	-4210
HI	-4211
vir	-4212
▁require	-4213
PKG	-4214
▁Gr	-4215
avail	-4216
viron	-4217
INDEX	-4218
▁Class	-4219
LEFT	-4220
▁coordin	-4221
▁clock	-4222
Entries	-4223
▁Ex	-4224
PendingIntent	-4225
Adjust	-4226
Starting	-4227
Hidden	-4228
Desktop	-4229
▁NO	-4230
▁node	-4231
cycle	-4232
▁Callback	-4233
econds	-4234
ROLL	-4235
anking	-4236
clude	-4237
lying	-4238
MES	-4239
acket	-4240
▁SystemClock	-4241
▁60	-4242
Tint	-4243
Scrim	-4244
▁Icon	-4245
Link	-4246
▁style	-4247
▁both	-4248
vironment	-4249
28	-4250
truth	-4251
Qs	-4252
IfNeeded	-4253
security	-4254
(3	-4255
66	-4256
========	-4257
Document	-4258
Files	-4259
ableLooper	-4260
Part	-4261
▁these	-4262
split	-4263
▁carrier	-4264
▁XmlPullParser	-4265
Hal	-4266
▁1.0	-4267
▁description	-4268
Uids	-4269
Shown	-4270
Tracking	-4271
BOUND	-4272
LOCATION	-4273
ML	-4274
uled	-4275
eedback	-4276
▁temp	-4277
Seg	-4278
ANIM	-4279
cheduled	-4280
▁se	-4281
md	-4282
▁Assert	-4283
AspectRatio	-4284
Attribution	-4285
▁--	-4286
▁2022	-4287
Tap	-4288
Attr	-4289
PHONE	-4290
SystemClock	-4291
WakeLock	-4292
WID	-4293
▁grant	-4294
STREAM	-4295
Uuid	-4296
Indent	-4297
▁include	-4298
▁pointer	-4299
▁31	-4300
IZ	-4301
▁disable	-4302
DeviceState	-4303
ceed	-4304
High	-4305
Ambient	-4306
Close	-4307
ias	-4308
osing	-4309
Subtype	-4310
▁direction	-4311
ALE	-4312
▁hash	-4313
ping	-4314
▁Unsupported	-4315
Clip	-4316
▁cur	-4317
▁mPending	-4318
atency	-4319
▁persist	-4320
chor	-4321
////////	-4322
▁DIS	-4323
MANAGER	-4324
▁binder	-4325
Until	-4326
stats	-4327
DataClass	-4328
Restricted	-4329
ergy	-4330
Reporter	-4331
▁15	-4332
Selector	-4333
18	-4334
Sl	-4335
UIS	-4336
▁Resources	-4337
77	-4338
ecess	-4339
▁50	-4340
▁address	-4341
ecution	-4342
▁Point	-4343
aries	-4344
NCE	-4345
(",	-4346
▁waitFor	-4347
Dp	-4348
ORD	-4349
▁src	-4350
PS	-4351
▁due	-4352
alend	-4353
alendar	-4354
▁PACKAGE	-4355
GB	-4356
▁suspend	-4357
13	-4358
ocations	-4359
Creator	-4360
Conversation	-4361
PTION	-4362
++;	-4363
▁restore	-4364
my	-4365
draw	-4366
▁ATTR	-4367
offset	-4368
▁30	-4369
Truth	-4370
Restrictions	-4371
44	-4372
SW	-4373
SCRI	-4374
assertEquals	-4375
▁Only	-4376
DISABLED	-4377
▁Vibration	-4378
Note	-4379
▁avoid	-4380
ENCE	-4381
=");	-4382
▁scene	-4383
Ignore	-4384
rash	-4385
available	-4386
▁behavior	-4387
RefreshRate	-4388
▁another	-4389
▁metadata	-4390
izes	-4391
▁notifications	-4392
sm	-4393
▁animator	-4394
Illegal	-4395
▁signal	-4396
▁priority	-4397
Characteristics	-4398
iment	-4399
▁render	-4400
LAUNCH	-4401
Opt	-4402
INSTALL	-4403
22	-4404
Destroy	-4405
bin	-4406
▁like	-4407
getClass	-4408
OB	-4409
▁Sys	-4410
Library	-4411
▁contain	-4412
Stage	-4413
BRIGHT	-4414
SHORT	-4415
▁mKeyguard	-4416
NEL	-4417
▁):	-4418
Transform	-4419
ACCESSIBILITY	-4420
▁raw	-4421
▁Mutable	-4422
▁argument	-4423
▁character	-4424
▁attribution	-4425
Game	-4426
Doze	-4427
Hide	-4428
opup	-4429
aled	-4430
Scheduler	-4431
interface	-4432
▁properties	-4433
values	-4434
Exact	-4435
":	-4436
RATE	-4437
▁ActivityManager	-4438
▁Dis	-4439
▁means	-4440
Press	-4441
scroll	-4442
▁25	-4443
Lite	-4444
uf	-4445
▁provide	-4446
▁11	-4447
Coordin	-4448
▁3;	-4449
▁HashMap	-4450
▁accessibility	-4451
GRAN	-4452
▁children	-4453
(1)).	-4454
PERTY	-4455
▁hold	-4456
ActivityInfo	-4457
▁see	-4458
▁paint	-4459
auth	-4460
TRACE	-4461
UISingleton	-4462
location	-4463
▁font	-4464
ically	-4465
SysUISingleton	-4466
Letterbox	-4467
Boot	-4468
▁needed	-4469
▁bound	-4470
alcul	-4471
Picture	-4472
1",	-4473
ript	-4474
▁put	-4475
CCESS	-4476
▁cached	-4477
▁measure	-4478
enchmarkState	-4479
Sound	-4480
Resize	-4481
Focused	-4482
MeasureSpec	-4483
Verification	-4484
REG	-4485
▁keep	-4486
Support	-4487
NUM	-4488
▁longer	-4489
EnableFlags	-4490
num	-4491
aging	-4492
ERA	-4493
rap	-4494
Clear	-4495
MASK	-4496
Features	-4497
▁region	-4498
▁wallpaper	-4499
NC	-4500
:"	-4501
38	-4502
getService	-4503
ResolveInfo	-4504
Contr	-4505
flicker	-4506
▁how	-4507
▁ActivityRecord	-4508
WIFI	-4509
ABILITY	-4510
PRIORITY	-4511
terator	-4512
Template	-4513
▁receive	-4514
Center	-4515
RESH	-4516
gh	-4517
query	-4518
Communal	-4519
acts	-4520
▁supports	-4521
▁retrie	-4522
Modifier	-4523
SENSOR	-4524
WM	-4525
mer	-4526
▁Type	-4527
oroutineScope	-4528
Import	-4529
SUPPORTED	-4530
UNDEFINED	-4531
Transitions	-4532
▁orientation	-4533
▁generate	-4534
▁restriction	-4535
MANAGE	-4536
CALLING	-4537
▁Sub	-4538
STRING	-4539
FFECT	-4540
Hardware	-4541
26	-4542
▁visibility	-4543
34	-4544
COLOR	-4545
▁millis	-4546
Memory	-4547
FACE	-4548
CANCE	-4549
Kosmos	-4550
match	-4551
Edit	-4552
INGER	-4553
DELAY	-4554
tools	-4555
select	-4556
▁determ	-4557
▁compat	-4558
Expandable	-4559
wer	-4560
obj	-4561
ROTATION	-4562
▁mNotification	-4563
periment	-4564
17	-4565
▁mMax	-4566
Double	-4567
UserInfo	-4568
ADD	-4569
▁ui	-4570
▁Biometric	-4571
▁what	-4572
finish	-4573
findViewById	-4574
open	-4575
CURRENT	-4576
▁secondary	-4577
ptime	-4578
Interactive	-4579
MAL	-4580
Success	-4581
Canvas	-4582
vance	-4583
Self	-4584
▁Creates	-4585
▁encod	-4586
▁virtual	-4587
OLUME	-4588
96	-4589
dialog	-4590
LEN	-4591
Wait	-4592
osable	-4593
ATCH	-4594
▁auto	-4595
▁enter	-4596
zen	-4597
▁even	-4598
AMERA	-4599
AppId	-4600
3.	-4601
ADJ	-4602
RUN	-4603
▁Lo	-4604
LINE	-4605
▁parameters	-4606
forEach	-4607
▁mInjector	-4608
ested	-4609
Send	-4610
faces	-4611
NING	-4612
▁MIN	-4613
Health	-4614
elecom	-4615
POSITION	-4616
DisplayId	-4617
▁opt	-4618
writing	-4619
▁transport	-4620
ush	-4621
FOCUS	-4622
Provision	-4623
ViewGroup	-4624
change	-4625
params	-4626
▁Kosmos	-4627
▁Frame	-4628
▁consider	-4629
▁adjust	-4630
Registered	-4631
▁++	-4632
Corner	-4633
getPackage	-4634
▁mOn	-4635
▁Preconditions	-4636
volume	-4637
BluetoothDevice	-4638
▁storage	-4639
TURE	-4640
Starter	-4641
▁Action	-4642
36	-4643
Times	-4644
egative	-4645
▁space	-4646
Fraction	-4647
InstanceState	-4648
▁3,	-4649
ermal	-4650
unregister	-4651
isNull	-4652
▁server	-4653
Behavior	-4654
empt	-4655
TS	-4656
getCurrent	-4657
PowerStats	-4658
35	-4659
▁Event	-4660
▁pip	-4661
Preview	-4662
Standby	-4663
)))	-4664
backup	-4665
▁received	-4666
WARE	-4667
ignment	-4668
WindowContainer	-4669
▁1000	-4670
alsing	-4671
▁Typed	-4672
75	-4673
▁skip	-4674
strong	-4675
setOn	-4676
ENTER	-4677
▁24	-4678
oggle	-4679
getInstance	-4680
AUTH	-4681
▁short	-4682
▁slot	-4683
▁flow	-4684
▁video	-4685
Experiment	-4686
▁mPre	-4687
Column	-4688
ONLY	-4689
('	-4690
atas	-4691
DP	-4692
ucture	-4693
▁dismiss	-4694
itional	-4695
Band	-4696
SessionId	-4697
controller	-4698
▁containing	-4699
LOCKED	-4700
ATTERY	-4701
Front	-4702
▁click	-4703
mT	-4704
note	-4705
Launcher	-4706
Death	-4707
▁Persist	-4708
ORIENTATION	-4709
****	-4710
Exist	-4711
oving	-4712
Cutout	-4713
uptime	-4714
▁TaskFragment	-4715
MESSAGE	-4716
Condition	-4717
EFFECT	-4718
Dynamic	-4719
Hz	-4720
tern	-4721
Scheme	-4722
Logging	-4723
erf	-4724
FORMAT	-4725
ollback	-4726
▁DeviceConfig	-4727
STAR	-4728
Phone	-4729
CharSequence	-4730
2)	-4731
Groups	-4732
client	-4733
amily	-4734
aptic	-4735
shade	-4736
▁TextView	-4737
odes	-4738
Single	-4739
OCK	-4740
ViewHolder	-4741
icker	-4742
▁Backup	-4743
getCallingUid	-4744
SESSION	-4745
(4	-4746
()}.	-4747
Attached	-4748
Nanos	-4749
▁mDefault	-4750
OUCH	-4751
Fix	-4752
Radio	-4753
BUTT	-4754
ouch	-4755
valu	-4756
LICATION	-4757
Rep	-4758
Keep	-4759
Slot	-4760
▁Unit	-4761
BUTTON	-4762
▁companion	-4763
▁State	-4764
Generated	-4765
▁head	-4766
Interval	-4767
▁userHandle	-4768
Page	-4769
Frequency	-4770
getDefault	-4771
UpdateMonitor	-4772
CER	-4773
▁listOf	-4774
FlagsRule	-4775
▁spy	-4776
Force	-4777
▁correct	-4778
▁enforce	-4779
BACKGROUND	-4780
▁adapter	-4781
▁requests	-4782
idi	-4783
path	-4784
Checker	-4785
function	-4786
▁?:	-4787
Preferences	-4788
37	-4789
▁corresponding	-4790
▁following	-4791
ountry	-4792
StatusReporter	-4793
DEN	-4794
validate	-4795
STOP	-4796
mDevice	-4797
Tiles	-4798
▁InputMethod	-4799
Contents	-4800
▁phone	-4801
tf	-4802
bool	-4803
Begin	-4804
▁Comm	-4805
IDER	-4806
GUARD	-4807
mActivity	-4808
▁unregister	-4809
IV	-4810
▁Locale	-4811
▁states	-4812
Vertical	-4813
shortcut	-4814
RootTask	-4815
bn	-4816
MAIN	-4817
bView	-4818
mState	-4819
zing	-4820
▁")	-4821
27	-4822
▁Flow	-4823
AppOpsManager	-4824
Experimental	-4825
ubmit	-4826
▁Auth	-4827
▁Default	-4828
>(	-4829
SECOND	-4830
▁happen	-4831
REE	-4832
▁mIn	-4833
Privacy	-4834
FR	-4835
BG	-4836
IGH	-4837
▁Insets	-4838
▁resolved	-4839
▁padding	-4840
ycler	-4841
Matcher	-4842
▁schedule	-4843
getUid	-4844
Sessions	-4845
AudioManager	-4846
▁Z	-4847
GONE	-4848
lert	-4849
98	-4850
ILED	-4851
▁cap	-4852
▁AU	-4853
▁Lock	-4854
▁proc	-4855
▁route	-4856
ordance	-4857
Raw	-4858
VOLUME	-4859
acity	-4860
▁ignore	-4861
▁foreground	-4862
Encod	-4863
Tool	-4864
ecessary	-4865
SELE	-4866
Printer	-4867
▁possible	-4868
48	-4869
etch	-4870
▁HdmiCec	-4871
BRIGHTNESS	-4872
▁Base	-4873
▁Sensor	-4874
ances	-4875
Effects	-4876
95	-4877
▁applied	-4878
GS	-4879
▁bl	-4880
▁Wifi	-4881
Presubmit	-4882
▁rate	-4883
ings	-4884
Delayed	-4885
IF	-4886
▁your	-4887
▁assertNotNull	-4888
BOUNDS	-4889
Unlocked	-4890
65	-4891
initial	-4892
ylus	-4893
Used	-4894
▁cre	-4895
CAST	-4896
▁select	-4897
LIM	-4898
Preferred	-4899
enc	-4900
andid	-4901
arsing	-4902
Warnings	-4903
CUT	-4904
UAL	-4905
▁maximum	-4906
▁resolve	-4907
Fade	-4908
▁transform	-4909
Strong	-4910
ough	-4911
profile	-4912
▁ME	-4913
▁explicit	-4914
▁ignored	-4915
FORM	-4916
Rules	-4917
▁real	-4918
Throws	-4919
mNative	-4920
maxTargetSdk	-4921
RAME	-4922
orary	-4923
▁pi	-4924
raph	-4925
oring	-4926
▁hide	-4927
▁above	-4928
Targets	-4929
late	-4930
BE	-4931
XmlPullParser	-4932
Icons	-4933
Secondary	-4934
aster	-4935
ViewController	-4936
▁OP	-4937
pers	-4938
dimen	-4939
▁URI	-4940
▁hel	-4941
COMPLE	-4942
▁bit	-4943
asList	-4944
▁),	-4945
▁invoked	-4946
ALLOWED	-4947
▁yet	-4948
OK	-4949
OPEN	-4950
ITIAL	-4951
▁AC	-4952
olog	-4953
▁19	-4954
aling	-4955
PR	-4956
▁Usb	-4957
Same	-4958
▁Indic	-4959
FAIL	-4960
HEAD	-4961
▁2020	-4962
▁delta	-4963
▁1.	-4964
▁items	-4965
PU	-4966
ple	-4967
uted	-4968
▁infl	-4969
QS	-4970
ten	-4971
enforce	-4972
▁header	-4973
IRED	-4974
root	-4975
inner	-4976
Relative	-4977
holder	-4978
▁fill	-4979
▁services	-4980
FAILED	-4981
▁credential	-4982
EventListener	-4983
BIND	-4984
Thrott	-4985
▁14	-4986
Received	-4987
Role	-4988
SUCCESS	-4989
aced	-4990
▁connected	-4991
putInt	-4992
TestApi	-4993
EMP	-4994
▁place	-4995
▁mPower	-4996
▁Verify	-4997
Standard	-4998
istance	-4999
MAP	-5000
USE	-5001
recycle	-5002
▁previously	-5003
▁done	-5004
Chain	-5005
Video	-5006
▁Thread	-5007
▁actions	-5008
ByteArray	-5009
1)	-5010
delete	-5011
connected	-5012
▁automatic	-5013
YNC	-5014
▁32	-5015
AB	-5016
▁dim	-5017
USAGE	-5018
▁TRAN	-5019
▁wake	-5020
taskId	-5021
Screenshot	-5022
=%	-5023
uter	-5024
Associ	-5025
▁statusBar	-5026
StateListener	-5027
gs	-5028
VIDER	-5029
audio	-5030
▁gu	-5031
Mapping	-5032
2_	-5033
erson	-5034
PRIVATE	-5035
▁latest	-5036
▁40	-5037
xis	-5038
Bad	-5039
scale	-5040
Windows	-5041
▁refresh	-5042
▁Ac	-5043
Saver	-5044
▁immediately	-5045
Fill	-5046
▁18	-5047
xim	-5048
Round	-5049
Installed	-5050
?,	-5051
background	-5052
LAYOUT	-5053
IFIED	-5054
iated	-5055
parcel	-5056
76	-5057
▁configure	-5058
bluetooth	-5059
Ims	-5060
▁Start	-5061
▁files	-5062
Bg	-5063
sys	-5064
▁Collections	-5065
proto	-5066
OMETRIC	-5067
▁vert	-5068
▁updates	-5069
pending	-5070
Recognition	-5071
unk	-5072
Extension	-5073
▁Permission	-5074
(-	-5075
▁Throw	-5076
▁defStyle	-5077
KeyStore	-5078
()),	-5079
Elements	-5080
perty	-5081
▁validate	-5082
brightness	-5083
▁Scene	-5084
Collector	-5085
3)	-5086
ocket	-5087
▁mPip	-5088
▁logger	-5089
SdkConstant	-5090
PRIMARY	-5091
▁installed	-5092
WORD	-5093
▁RE	-5094
({	-5095
Spy	-5096
TAR	-5097
▁DEVICE	-5098
orig	-5099
▁below	-5100
▁matrix	-5101
ACCESS	-5102
private	-5103
Public	-5104
Providers	-5105
COMM	-5106
Tree	-5107
amed	-5108
Segment	-5109
▁Ed	-5110
21	-5111
▁Value	-5112
39	-5113
Day	-5114
battery	-5115
▁most	-5116
▁might	-5117
caller	-5118
▁mLock	-5119
▁Ui	-5120
▁4;	-5121
84	-5122
▁mN	-5123
(0.	-5124
NAMES	-5125
▁mText	-5126
det	-5127
Overrides	-5128
arLayout	-5129
▁mUserId	-5130
UserState	-5131
▁ProtoLog	-5132
▁Location	-5133
▁clip	-5134
BATTERY	-5135
sync	-5136
solute	-5137
▁handled	-5138
▁finished	-5139
▁CaptureRequest	-5140
▁THEN	-5141
Exactly	-5142
setText	-5143
Cached	-5144
usion	-5145
Allowlist	-5146
▁AudioManager	-5147
▁""	-5148
stim	-5149
Drop	-5150
Database	-5151
Move	-5152
▁mMedia	-5153
▁listeners	-5154
▁90	-5155
ffff	-5156
Runtime	-5157
▁Session	-5158
31	-5159
More	-5160
Density	-5161
<?	-5162
▁lp	-5163
Atom	-5164
Energy	-5165
▁assertNull	-5166
WITH	-5167
cs	-5168
▁Ims	-5169
CLASS	-5170
▁ever	-5171
▁nothing	-5172
Member	-5173
▁viewModel	-5174
esNot	-5175
IDLE	-5176
ookie	-5177
▁recent	-5178
▁were	-5179
Mobile	-5180
rest	-5181
perform	-5182
▁pixels	-5183
obtainMessage	-5184
field	-5185
itted	-5186
Prefix	-5187
▁summary	-5188
resources	-5189
85	-5190
HIGH	-5191
TRI	-5192
local	-5193
▁EXTRA	-5194
EP	-5195
▁sim	-5196
aybe	-5197
▁directly	-5198
STAND	-5199
▁tests	-5200
ables	-5201
▁reg	-5202
▁Used	-5203
self	-5204
▁normal	-5205
DownLatch	-5206
sume	-5207
Receive	-5208
Digest	-5209
mApp	-5210
Always	-5211
CAMERA	-5212
BIT	-5213
IMPORTA	-5214
▁layer	-5215
Ep	-5216
};	-5217
controls	-5218
aking	-5219
UMN	-5220
▁FI	-5221
allet	-5222
elapsedRealtime	-5223
Fold	-5224
ooser	-5225
▁WindowContainer	-5226
▁("	-5227
rection	-5228
Editor	-5229
coming	-5230
94	-5231
▁Can	-5232
mLast	-5233
Ravenwood	-5234
Presentation	-5235
▁cause	-5236
Velocity	-5237
ERS	-5238
Certificate	-5239
Registration	-5240
Leash	-5241
▁AppOps	-5242
APPLICATION	-5243
SparseArray	-5244
elock	-5245
HED	-5246
▁Atom	-5247
86	-5248
Slice	-5249
ANIMATION	-5250
▁free	-5251
Oc	-5252
ernel	-5253
IntentFilter	-5254
opt	-5255
Results	-5256
ProtoLog	-5257
Depth	-5258
▁attributes	-5259
▁pm	-5260
)),	-5261
ROM	-5262
wake	-5263
ral	-5264
PowerManager	-5265
▁PRI	-5266
Predic	-5267
ContentObserver	-5268
▁shell	-5269
Supplier	-5270
tions	-5271
arging	-5272
mCurrent	-5273
uptimeMillis	-5274
0.	-5275
▁Paint	-5276
getNotification	-5277
si	-5278
(5	-5279
▁UN	-5280
level	-5281
▁Make	-5282
Feedback	-5283
rossProfile	-5284
VED	-5285
rase	-5286
akelock	-5287
FrameRate	-5288
▁save	-5289
TransitionState	-5290
▁showing	-5291
bit	-5292
CHAR	-5293
Qual	-5294
chang	-5295
anceled	-5296
▁locale	-5297
Animations	-5298
47	-5299
92	-5300
Optional	-5301
▁authentication	-5302
▁mTestLooper	-5303
ges	-5304
▁own	-5305
release	-5306
Emergency	-5307
FIELD	-5308
mView	-5309
arator	-5310
non	-5311
▁Atomic	-5312
67	-5313
▁Out	-5314
getText	-5315
Smartspace	-5316
getChild	-5317
getAction	-5318
char	-5319
▁mTask	-5320
Medi	-5321
▁writer	-5322
▁least	-5323
▁global	-5324
pad	-5325
Codec	-5326
Period	-5327
▁mListener	-5328
Card	-5329
aptor	-5330
ategories	-5331
TOUCH	-5332
CHANNEL	-5333
▁future	-5334
rot	-5335
Tags	-5336
▁identifier	-5337
▁Volume	-5338
serv	-5339
▁scan	-5340
▁writeToParcel	-5341
erial	-5342
br	-5343
erged	-5344
Estim	-5345
ading	-5346
ROAD	-5347
▁uses	-5348
▁queue	-5349
Fixed	-5350
▁mL	-5351
doc	-5352
Diff	-5353
▁mStart	-5354
fulness	-5355
▁Resol	-5356
Flicker	-5357
=*/	-5358
ROADCAST	-5359
89	-5360
plies	-5361
:");	-5362
cat	-5363
▁64	-5364
▁modifier	-5365
▁framework	-5366
SuppressWarnings	-5367
▁take	-5368
▁release	-5369
=\"	-5370
RECE	-5371
▁obj	-5372
ZenRule	-5373
PACE	-5374
irror	-5375
▁mark	-5376
▁attribute	-5377
▁13	-5378
Stopped	-5379
Transfer	-5380
--)	-5381
FIL	-5382
OTHER	-5383
mUser	-5384
ollap	-5385
orted	-5386
▁rele	-5387
Loaded	-5388
▁expanded	-5389
mCallback	-5390
▁holder	-5391
BOOT	-5392
DETE	-5393
▁Size	-5394
Capability	-5395
:</	-5396
▁clean	-5397
WINDOWING	-5398
▁taskId	-5399
Attach	-5400
getType	-5401
43	-5402
kotlin	-5403
QuotaController	-5404
59	-5405
noo	-5406
Pool	-5407
Slog	-5408
▁unique	-5409
Cert	-5410
fully	-5411
erature	-5412
vm	-5413
dfps	-5414
▁face	-5415
alpha	-5416
Horizontal	-5417
Private	-5418
nd	-5419
ULE	-5420
THOD	-5421
▁look	-5422
▁Other	-5423
▁saved	-5424
Automatic	-5425
69	-5426
oom	-5427
Orig	-5428
Unknown	-5429
Cell	-5430
istor	-5431
CAC	-5432
▁desired	-5433
000,	-5434
DK	-5435
87	-5436
▁APP	-5437
▁span	-5438
▁Shell	-5439
▁mExecutor	-5440
Fields	-5441
Appearance	-5442
cert	-5443
>\	-5444
IST	-5445
▁SE	-5446
▁23	-5447
elist	-5448
buffer	-5449
▁Remove	-5450
▁Update	-5451
swer	-5452
LIGHT	-5453
NameNot	-5454
▁17	-5455
Scenes	-5456
ression	-5457
▁convert	-5458
▁operations	-5459
▁suggestion	-5460
></	-5461
Called	-5462
ataset	-5463
▁platform	-5464
Counter	-5465
TES	-5466
ants	-5467
oves	-5468
itelist	-5469
API	-5470
getDimension	-5471
▁trackingBug	-5472
Ma	-5473
RST	-5474
keyAt	-5475
ooter	-5476
▁Modifier	-5477
Coordinator	-5478
▁36	-5479
FRAME	-5480
WIDTH	-5481
setVisibility	-5482
▁prepare	-5483
Apex	-5484
Apply	-5485
indexOf	-5486
▁too	-5487
▁DEBUG	-5488
▁mHdmi	-5489
Physical	-5490
ControlService	-5491
▁WHEN	-5492
disable	-5493
ynchron	-5494
Animating	-5495
▁RemoteViews	-5496
▁28	-5497
▁mG	-5498
yclerView	-5499
SceneContainer	-5500
~~~~	-5501
otword	-5502
ximity	-5503
▁inject	-5504
ListView	-5505
▁describe	-5506
▁activities	-5507
▁invalidate	-5508
Checked	-5509
▁objects	-5510
Manage	-5511
Handwriting	-5512
Depend	-5513
button	-5514
▁UserManager	-5515
containsExactly	-5516
▁atte	-5517
Ph	-5518
ift	-5519
account	-5520
hashCode	-5521
ONT	-5522
accept	-5523
akes	-5524
host	-5525
rollback	-5526
SCRIPTION	-5527
Box	-5528
▁ime	-5529
▁mHas	-5530
inputmethod	-5531
97	-5532
IntArray	-5533
vailability	-5534
CLO	-5535
▁hal	-5536
▁failure	-5537
LONG	-5538
▁area	-5539
68	-5540
▁elements	-5541
Coroutines	-5542
While	-5543
▁Indicates	-5544
containsKey	-5545
applicationInfo	-5546
umbn	-5547
TRANSIT	-5548
▁partic	-5549
DIAL	-5550
▁mSurface	-5551
ULTI	-5552
found	-5553
yg	-5554
▁4,	-5555
getB	-5556
tests	-5557
Completed	-5558
ATED	-5559
▁stored	-5560
sTo	-5561
▁US	-5562
Privile	-5563
▁milliseconds	-5564
isIn	-5565
▁edge	-5566
putExtra	-5567
Total	-5568
WindowInsets	-5569
SEC	-5570
Factor	-5571
Gravity	-5572
KEYGUARD	-5573
CoroutinesApi	-5574
49	-5575
Vpn	-5576
▁Line	-5577
RIDE	-5578
icky	-5579
scrib	-5580
Tests	-5581
licies	-5582
ins	-5583
57	-5584
label	-5585
Hex	-5586
LER	-5587
wifi	-5588
Created	-5589
IFICATION	-5590
SPECIFIED	-5591
DisplayInfo	-5592
>();	-5593
▁27	-5594
▁enc	-5595
▁hardware	-5596
▁subId	-5597
gregated	-5598
▁fragment	-5599
isVisible	-5600
91	-5601
_3	-5602
aused	-5603
PROPERTY	-5604
GTH	-5605
exist	-5606
▁taskInfo	-5607
▁Animator	-5608
setContent	-5609
▁22	-5610
_1);	-5611
umbnail	-5612
▁generated	-5613
54	-5614
▁execute	-5615
▁KeyguardState	-5616
Composable	-5617
ingSession	-5618
83	-5619
mM	-5620
▁CRE	-5621
▁mTarget	-5622
BLUE	-5623
▁logging	-5624
▁category	-5625
▁interaction	-5626
Answer	-5627
olated	-5628
SING	-5629
▁equals	-5630
▁destination	-5631
▁way	-5632
▁fields	-5633
51	-5634
FILTER	-5635
HANDLE	-5636
network	-5637
WindowingMode	-5638
ano	-5639
▁reference	-5640
Processor	-5641
PARENT	-5642
41	-5643
▁isn	-5644
getAttribute	-5645
93	-5646
▁XML	-5647
binder	-5648
▁trace	-5649
▁Tv	-5650
hind	-5651
tiles	-5652
▁password	-5653
Db	-5654
Lint	-5655
ritical	-5656
IntRange	-5657
▁PrintWriter	-5658
62	-5659
Msg	-5660
ued	-5661
▁testGet	-5662
42	-5663
Logical	-5664
▁dagger	-5665
urfaces	-5666
▁multi	-5667
▁theme	-5668
▁search	-5669
▁begin	-5670
testing	-5671
ensitive	-5672
▁Autofill	-5673
FY	-5674
_2,	-5675
viewmodel	-5676
▁ipw	-5677
Rollback	-5678
▁sessionId	-5679
▁VibrationEffect	-5680
▁mUid	-5681
FAILURE	-5682
CAPABILITY	-5683
Ar	-5684
ounce	-5685
ugins	-5686
HashMap	-5687
Copy	-5688
▁messages	-5689
BROADCAST	-5690
CONNECTED	-5691
});	-5692
▁35	-5693
avBar	-5694
valueOf	-5695
▁allows	-5696
▁48	-5697
OO	-5698
tl	-5699
SdkVersion	-5700
[1]	-5701
utes	-5702
Classifier	-5703
[2	-5704
egin	-5705
▁threshold	-5706
EXP	-5707
▁exists	-5708
Connectivity	-5709
BatteryConsumer	-5710
▁minimum	-5711
Table	-5712
Shader	-5713
▁light	-5714
fd	-5715
INTERNAL	-5716
LIMIT	-5717
Px	-5718
activ	-5719
issing	-5720
InputDevice	-5721
74	-5722
Apk	-5723
000);	-5724
▁secure	-5725
▁managed	-5726
CLIC	-5727
▁Ass	-5728
Bypass	-5729
channel	-5730
▁29	-5731
FILL	-5732
kens	-5733
Paths	-5734
LENGTH	-5735
▁21	-5736
▁St	-5737
izing	-5738
▁34	-5739
▁45	-5740
ICON	-5741
▁MODE	-5742
▁TRANS	-5743
andidate	-5744
63	-5745
readString	-5746
Inset	-5747
▁5,	-5748
encies	-5749
▁amount	-5750
BOT	-5751
oval	-5752
TRY	-5753
FROM	-5754
▁identity	-5755
▁newArray	-5756
▁33	-5757
atis	-5758
▁notif	-5759
WE	-5760
STATS	-5761
▁Tile	-5762
79	-5763
ores	-5764
▁mActive	-5765
▁specify	-5766
▁Count	-5767
▁deviceId	-5768
82	-5769
VO	-5770
PackageInfo	-5771
Gone	-5772
returns	-5773
asBinder	-5774
getDevice	-5775
▁indicating	-5776
atisf	-5777
▁stand	-5778
81	-5779
▁0.5	-5780
▁complete	-5781
SIGN	-5782
ision	-5783
collection	-5784
INITIAL	-5785
getUser	-5786
req	-5787
Pinned	-5788
▁Request	-5789
Ptr	-5790
ORMAL	-5791
▁focused	-5792
Indicator	-5793
frame	-5794
Clean	-5795
Score	-5796
▁mMain	-5797
▁mutable	-5798
Contract	-5799
icro	-5800
pipeline	-5801
▁compute	-5802
▁Optional	-5803
▁serializer	-5804
BOTTOM	-5805
writeString	-5806
och	-5807
▁26	-5808
lish	-5809
annable	-5810
▁INVALID	-5811
FREE	-5812
PixelSize	-5813
ELL	-5814
LOB	-5815
▁42	-5816
▁low	-5817
Delta	-5818
Prompt	-5819
Under	-5820
Latest	-5821
▁table	-5822
SuppressLint	-5823
Cause	-5824
Engine	-5825
▁Instrumentation	-5826
Jvm	-5827
▁exit	-5828
ControlManager	-5829
bedded	-5830
effect	-5831
▁entries	-5832
72	-5833
METHOD	-5834
ucation	-5835
▁deliver	-5836
DMA	-5837
duct	-5838
OVERLAY	-5839
46	-5840
Hdr	-5841
▁Bubble	-5842
▁details	-5843
▁side	-5844
71	-5845
▁memory	-5846
BIOMETRIC	-5847
73	-5848
▁99	-5849
61	-5850
KET	-5851
▁did	-5852
mAt	-5853
Imm	-5854
▁legacy	-5855
58	-5856
Signature	-5857
MainThread	-5858
getHeight	-5859
RECEI	-5860
USERS	-5861
▁Path	-5862
▁every	-5863
eps	-5864
ASH	-5865
Jobs	-5866
forClass	-5867
▁Animation	-5868
▁cases	-5869
TAL	-5870
Serializer	-5871
▁PowerManager	-5872
▁Virtual	-5873
Components	-5874
atable	-5875
▁Measure	-5876
Sleep	-5877
▁SysuiTestCase	-5878
52	-5879
OF	-5880
anced	-5881
▁metrics	-5882
▁IntentFilter	-5883
Notify	-5884
▁descriptor	-5885
Calls	-5886
>.	-5887
▁ar	-5888
prot	-5889
Form	-5890
asic	-5891
Intercept	-5892
ially	-5893
Profiles	-5894
essaging	-5895
Updates	-5896
▁onCreate	-5897
ATH	-5898
▁80	-5899
▁fd	-5900
ives	-5901
atures	-5902
▁destroy	-5903
istorical	-5904
(0).	-5905
▁step	-5906
Domain	-5907
▁":	-5908
▁pur	-5909
Specific	-5910
▁biometric	-5911
▁37	-5912
▁SH	-5913
ovement	-5914
▁transitions	-5915
Shadow	-5916
▁UserInfo	-5917
gable	-5918
▁integer	-5919
RESS	-5920
atten	-5921
▁indicate	-5922
descri	-5923
Reported	-5924
▁animations	-5925
53	-5926
▁regist	-5927
(0)	-5928
▁calculate	-5929
▁additional	-5930
pc	-5931
ampl	-5932
adient	-5933
pressed	-5934
▁getContext	-5935
▁"<	-5936
▁bg	-5937
arant	-5938
▁REASON	-5939
▁CREATOR	-5940
ContentView	-5941
CLE	-5942
Invoked	-5943
▁indicates	-5944
DisableFlags	-5945
*/,	-5946
Switcher	-5947
▁Constants	-5948
QLite	-5949
Without	-5950
▁origin	-5951
Satellite	-5952
▁Element	-5953
Annotation	-5954
GLE	-5955
▁maybe	-5956
▁75	-5957
▁instant	-5958
igningDetails	-5959
▁56	-5960
CANCEL	-5961
Listening	-5962
SysuiTestCase	-5963
▁alarm	-5964
▁Otherwise	-5965
Aware	-5966
latest	-5967
MULTI	-5968
putString	-5969
ommend	-5970
▁Provider	-5971
NAMESPACE	-5972
▁delete	-5973
▁38	-5974
▁-1,	-5975
GRANTED	-5976
▁page	-5977
▁QSTile	-5978
MediaData	-5979
BER	-5980
keep	-5981
ember	-5982
▁matches	-5983
.",	-5984
▁thrown	-5985
▁HdmiCecMessage	-5986
Mocks	-5987
Consumed	-5988
▁DO	-5989
▁fade	-5990
▁Phone	-5991
SHORTCUT	-5992
SignalStrength	-5993
(10	-5994
▁51	-5995
▁prev	-5996
▁later	-5997
▁physical	-5998
▁round	-5999
00);	-6000
▁preference	-6001
Environment	-6002
resolve	-6003
rece	-6004
BatteryStats	-6005
Ur	-6006
▁pin	-6007
Swipe	-6008
herit	-6009
IVEN	-6010
▁44	-6011
Packet	-6012
▁ready	-6013
adius	-6014
▁wifi	-6015
dog	-6016
bugg	-6017
▁47	-6018
head	-6019
Visual	-6020
▁starts	-6021
▁related	-6022
▁sep	-6023
▁GIVEN	-6024
aN	-6025
rip	-6026
Since	-6027
verse	-6028
callingUid	-6029
Ali	-6030
Com	-6031
▁DE	-6032
mW	-6033
▁72	-6034
▁si	-6035
▁mask	-6036
UiEvent	-6037
ipient	-6038
▁55	-6039
▁ps	-6040
onCreate	-6041
mF	-6042
▁100,	-6043
DIRECT	-6044
Frames	-6045
Locales	-6046
RESHOLD	-6047
▁Attribute	-6048
IllegalArgument	-6049
Inv	-6050
getSbn	-6051
>)	-6052
Sim	-6053
only	-6054
▁acc	-6055
▁itself	-6056
Language	-6057
(2,	-6058
▁43	-6059
▁54	-6060
missed	-6061
Execution	-6062
dispatchAll	-6063
▁95	-6064
GING	-6065
_4	-6066
block	-6067
apped	-6068
custom	-6069
foundation	-6070
▁Pip	-6071
Voice	-6072
▁mLayout	-6073
HdmiCec	-6074
sertion	-6075
clusion	-6076
manager	-6077
▁matching	-6078
Records	-6079
finition	-6080
AGES	-6081
▁49	-6082
ENER	-6083
grees	-6084
▁Throwable	-6085
(1)	-6086
▁96	-6087
Confirm	-6088
Interrupted	-6089
getIdentifier	-6090
TV	-6091
ody	-6092
rule	-6093
BOARD	-6094
overlay	-6095
▁hashCode	-6096
▁componentName	-6097
iform	-6098
▁small	-6099
Distance	-6100
▁Account	-6101
ShortcutInfo	-6102
▁hidden	-6103
ElapsedRealtime	-6104
Router	-6105
▁playback	-6106
▁59	-6107
reason	-6108
▁proxy	-6109
▁mI	-6110
RECORD	-6111
cc	-6112
▁turn	-6113
rapped	-6114
application	-6115
roke	-6116
getLast	-6117
Directory	-6118
MEN	-6119
▁39	-6120
SCALE	-6121
Endpoint	-6122
▁41	-6123
▁our	-6124
scape	-6125
▁pop	-6126
ollapsed	-6127
Resolution	-6128
getVisibility	-6129
▁65	-6130
ram	-6131
▁2021	-6132
Picker	-6133
NORMAL	-6134
▁attached	-6135
▁LocalServices	-6136
bined	-6137
uffers	-6138
▁equal	-6139
STARTED	-6140
▁mId	-6141
TARGET	-6142
▁ERROR	-6143
Simple	-6144
▁mIcon	-6145
foo	-6146
LOAD	-6147
▁requires	-6148
▁52	-6149
ITCH	-6150
▁WINDOW	-6151
rate	-6152
▁recording	-6153
types	-6154
TouchEvent	-6155
tx	-6156
FFER	-6157
▁mBattery	-6158
\\	-6159
▁46	-6160
ygote	-6161
▁88	-6162
▁78	-6163
PASS	-6164
unic	-6165
▁Consumer	-6166
▁89	-6167
cing	-6168
attribute	-6169
CR	-6170
SM	-6171
Other	-6172
▁windows	-6173
▁mMin	-6174
Activated	-6175
▁62	-6176
▁66	-6177
729	-6178
▁68	-6179
AF	-6180
thing	-6181
getWidth	-6182
▁TextUtils	-6183
▁98	-6184
▁AD	-6185
▁perm	-6186
▁58	-6187
FLAGS	-6188
Inner	-6189
▁idle	-6190
Tab	-6191
▁option	-6192
aff	-6193
estures	-6194
trigger	-6195
▁63	-6196
▁vendor	-6197
▁condition	-6198
▁automatically	-6199
▁53	-6200
▁57	-6201
credential	-6202
TRIG	-6203
▁seg	-6204
▁vol	-6205
ayload	-6206
Framework	-6207
THRESHOLD	-6208
▁AppOpsManager	-6209
TRIGGER	-6210
▁69	-6211
▁67	-6212
▁77	-6213
rior	-6214
PREFIX	-6215
METADATA	-6216
ShellCommand	-6217
2",	-6218
4::	-6219
ROSS	-6220
arms	-6221
sup	-6222
▁92	-6223
plane	-6224
uts	-6225
TaskId	-6226
rolled	-6227
▁84	-6228
▁85	-6229
▁87	-6230
SYNC	-6231
▁HashSet	-6232
▁71	-6233
▁76	-6234
▁83	-6235
begin	-6236
Displays	-6237
Overflow	-6238
▁97	-6239
▁cb	-6240
▁program	-6241
▁velocity	-6242
▁81	-6243
Companion	-6244
',	-6245
▁82	-6246
▁91	-6247
▁Us	-6248
▁HAL	-6249
▁Preference	-6250
hs	-6251
ALAR	-6252
▁True	-6253
grade	-6254
UNSPECIFIED	-6255
▁applications	-6256
PN	-6257
▁(1	-6258
▁5;	-6259
▁61	-6260
▁86	-6261
Night	-6262
▁~	-6263
xff	-6264
▁79	-6265
▁94	-6266
CONS	-6267
bubble	-6268
TIT	-6269
▁74	-6270
VIBR	-6271
▁mTmp	-6272
Cons	-6273
▁73	-6274
Resolved	-6275
ARCH	-6276
1_	-6277
▁93	-6278
Setup	-6279
▁Shared	-6280
fil	-6281
CREATOR	-6282
lash	-6283
actual	-6284
▁repository	-6285
PRINT	-6286
▁Font	-6287
HEIGHT	-6288
▁mInput	-6289
SIM	-6290
Plugin	-6291
▁mTemp	-6292
▁Stream	-6293
Extended	-6294
▁vertical	-6295
ACCOUNT	-6296
Blocked	-6297
▁displayed	-6298
▁70	-6299
crease	-6300
OVERRIDE	-6301
assertTrue	-6302
SON	-6303
ather	-6304
HARD	-6305
▁mapping	-6306
▁preview	-6307
Dr	-6308
primary	-6309
▁constant	-6310
RemoteViews	-6311
Transformation	-6312
FINGER	-6313
logging	-6314
Thermal	-6315
▁unlock	-6316
Iterator	-6317
ename	-6318
▁relative	-6319
CAR	-6320
▁wct	-6321
▁Spec	-6322
▁tasks	-6323
Affordance	-6324
▁Connection	-6325
▁initialize	-6326
▁NOT	-6327
anned	-6328
image	-6329
Vari	-6330
allowed	-6331
▁section	-6332
▁capability	-6333
fs	-6334
infl	-6335
Super	-6336
▁store	-6337
ribution	-6338
Option	-6339
▁timer	-6340
visibility	-6341
expand	-6342
▁sbn	-6343
▁Global	-6344
▁mPerf	-6345
▁boot	-6346
runtime	-6347
!");	-6348
▁170	-6349
RemoteInput	-6350
▁considered	-6351
▁preferred	-6352
▁monitor	-6353
RGB	-6354
Vendor	-6355
ACY	-6356
▁-1)	-6357
Alert	-6358
▁pair	-6359
checked	-6360
mHandler	-6361
▁Creator	-6362
▁Launch	-6363
we	-6364
ENTI	-6365
ignatures	-6366
VibrationEffect	-6367
tv	-6368
▁Sync	-6369
Recorder	-6370
Seconds	-6371
andscape	-6372
TestRule	-6373
TIVITY	-6374
Ongoing	-6375
▁VAL	-6376
SWITCH	-6377
PatternUtils	-6378
oder	-6379
proc	-6380
duration	-6381
▁retrieve	-6382
▁CountDownLatch	-6383
rimitive	-6384
▁connect	-6385
LocalDevice	-6386
ool	-6387
Anchor	-6388
lider	-6389
plugins	-6390
▁AttributeSet	-6391
xx	-6392
FORCE	-6393
▁There	-6394
Importance	-6395
▁anyBoolean	-6396
pose	-6397
SPACE	-6398
MOVE	-6399
helf	-6400
APE	-6401
▁unknown	-6402
JobStatus	-6403
Classification	-6404
▁looper	-6405
BinderService	-6406
▁mSettings	-6407
DU	-6408
RAY	-6409
▁ring	-6410
ampling	-6411
LIT	-6412
ips	-6413
extra	-6414
remot	-6415
ucceed	-6416
communal	-6417
▁TimeUnit	-6418
ids	-6419
aming	-6420
▁anyString	-6421
Interactions	-6422
[0];	-6423
▁Dump	-6424
RESTRICTED	-6425
table	-6426
usage	-6427
▁bucket	-6428
▁density	-6429
▁mProvider	-6430
▁horizontal	-6431
▁10;	-6432
Percent	-6433
▁mScreen	-6434
pr	-6435
DEO	-6436
Crop	-6437
72955	-6438
▁prevent	-6439
UST	-6440
broadcast	-6441
▁explicitly	-6442
ecomp	-6443
▁SCREEN	-6444
CK	-6445
▁href	-6446
layback	-6447
▁watch	-6448
▁17072955	-6449
Go	-6450
fill	-6451
oundTrigger	-6452
▁170729553)	-6453
▁mStats	-6454
▁ActivityInfo	-6455
panel	-6456
▁runnable	-6457
▁Brightness	-6458
HD	-6459
▁drop	-6460
sWith	-6461
bounds	-6462
▁those	-6463
▁whose	-6464
Invocations	-6465
RootImpl	-6466
CM	-6467
▁AudioSystem	-6468
NON	-6469
UiEventLogger	-6470
▁callingPackage	-6471
Bit	-6472
Texture	-6473
nio	-6474
▁mAudio	-6475
NEW	-6476
Routes	-6477
ma	-6478
uses	-6479
Trusted	-6480
clock	-6481
▁optional	-6482
SCROLL	-6483
▁actually	-6484
Desc	-6485
Grid	-6486
mWindow	-6487
Contacts	-6488
▁necessary	-6489
Perf	-6490
FIRST	-6491
mR	-6492
NAV	-6493
CLICK	-6494
RAW	-6495
allen	-6496
▁Flag	-6497
clus	-6498
▁comb	-6499
Within	-6500
atisfied	-6501
wtf	-6502
ecompose	-6503
animate	-6504
remotecompose	-6505
Libraries	-6506
▁dream	-6507
▁ear	-6508
PROVIDER	-6509
ProcState	-6510
▁vibration	-6511
NULL	-6512
dismiss	-6513
installed	-6514
CHEC	-6515
▁repl	-6516
Calendar	-6517
Collections	-6518
▁capabilities	-6519
icc	-6520
▁mSystem	-6521
isNotNull	-6522
url	-6523
Bits	-6524
Exemp	-6525
ario	-6526
▁Rest	-6527
ograph	-6528
getState	-6529
schedule	-6530
emo	-6531
123	-6532
ves	-6533
▁2)	-6534
LOAT	-6535
TABLE	-6536
enario	-6537
UNAVAILABLE	-6538
▁represents	-6539
ITE	-6540
▁PO	-6541
TICAL	-6542
waitFor	-6543
▁Gravity	-6544
StateList	-6545
aving	-6546
▁checked	-6547
▁Secure	-6548
imize	-6549
▁mClient	-6550
Defaults	-6551
▁navigation	-6552
▁"/	-6553
rins	-6554
Vector	-6555
▁logic	-6556
▁Policy	-6557
▁fingerprint	-6558
rozen	-6559
▁telephony	-6560
▁mDisplayContent	-6561
WRI	-6562
▁ratio	-6563
▁history	-6564
▁Result	-6565
▁authentic	-6566
▁made	-6567
▁attempt	-6568
▁mEvent	-6569
INTERVAL	-6570
REF	-6571
PHON	-6572
▁know	-6573
COD	-6574
▁\	-6575
▁home	-6576
FULLSCREEN	-6577
>"	-6578
lt	-6579
SEND	-6580
▁mContent	-6581
▁ByteArray	-6582
ARRAY	-6583
▁Cursor	-6584
NullPointer	-6585
lection	-6586
▁provides	-6587
▁elapsedRealtime	-6588
ALITY	-6589
Sample	-6590
▁Application	-6591
▁COL	-6592
MAG	-6593
WALL	-6594
ZenModeHelper	-6595
!!.	-6596
Side	-6597
Share	-6598
Points	-6599
ravenwood	-6600
Throttling	-6601
▁constraint	-6602
ingController	-6603
TELE	-6604
▁decor	-6605
RECEIVER	-6606
PEND	-6607
andbox	-6608
▁mStatusBar	-6609
00()	-6610
▁insert	-6611
Final	-6612
▁zero	-6613
▁These	-6614
Repeat	-6615
achedDevice	-6616
Lazy	-6617
▁autofill	-6618
▁qs	-6619
Granted	-6620
▁repeat	-6621
mNotification	-6622
BUC	-6623
▁mKey	-6624
HexString	-6625
Haptic	-6626
▁determine	-6627
Two	-6628
gener	-6629
nooze	-6630
Serial	-6631
▁tap	-6632
Gnss	-6633
allenge	-6634
▁keyboard	-6635
▁".	-6636
Zero	-6637
▁Ime	-6638
BACKUP	-6639
Cannot	-6640
▁Radio	-6641
tip	-6642
▁safe	-6643
Persistent	-6644
▁logical	-6645
▁mPackageManager	-6646
▁particular	-6647
uster	-6648
▁advance	-6649
Uptime	-6650
Whitelist	-6651
Adjustment	-6652
BackInvoked	-6653
)},	-6654
rait	-6655
▁database	-6656
▁card	-6657
Parsed	-6658
VISION	-6659
ternate	-6660
NaN	-6661
times	-6662
▁modes	-6663
▁6,	-6664
▁vari	-6665
changed	-6666
aker	-6667
▁"",	-6668
taskInfo	-6669
▁assertWith	-6670
Oom	-6671
cor	-6672
▁Uid	-6673
Sharing	-6674
_"	-6675
▁jobs	-6676
DIALOG	-6677
▁TV	-6678
▁crop	-6679
▁cell	-6680
Proximity	-6681
▁invocation	-6682
▁10,	-6683
▁getChild	-6684
▁Expandable	-6685
▁Vis	-6686
Alias	-6687
Enfor	-6688
▁link	-6689
getWindow	-6690
▁Should	-6691
Download	-6692
REMOTE	-6693
▁TransitionInfo	-6694
Ear	-6695
CHED	-6696
▁hint	-6697
COLUMN	-6698
▁mConfig	-6699
▁contents	-6700
▁mPackageName	-6701
▁trust	-6702
Latency	-6703
MediaDevice	-6704
HAN	-6705
▁fully	-6706
▁loaded	-6707
autofill	-6708
TaskDisplayArea	-6709
da	-6710
▁DA	-6711
HOME	-6712
Perm	-6713
TORE	-6714
Enums	-6715
InstantApp	-6716
▁hierarchy	-6717
▁Ab	-6718
eleted	-6719
Ow	-6720
impl	-6721
▁Menu	-6722
▁debug	-6723
▁security	-6724
Autom	-6725
▁userState	-6726
MIC	-6727
mKeyguard	-6728
▁signature	-6729
Dex	-6730
Inline	-6731
getColor	-6732
`(	-6733
▁note	-6734
rinsic	-6735
ulated	-6736
▁frequency	-6737
USB	-6738
DESK	-6739
▁aff	-6740
▁PackageInfo	-6741
master	-6742
▁fixed	-6743
▁accept	-6744
font	-6745
TITLE	-6746
UiThread	-6747
Transient	-6748
▁overr	-6749
▁attach	-6750
▁WebView	-6751
▁assertThrows	-6752
MR	-6753
Dot	-6754
getParent	-6755
▁external	-6756
Esc	-6757
iddle	-6758
acement	-6759
Schedule	-6760
LogBuffer	-6761
flatten	-6762
▁components	-6763
Sms	-6764
EXTER	-6765
mTest	-6766
surface	-6767
▁colors	-6768
BASE	-6769
work	-6770
Spacing	-6771
ality	-6772
anyString	-6773
PACK	-6774
sd	-6775
SHELL	-6776
maybe	-6777
AndroidManifest	-6778
▁Per	-6779
ForUid	-6780
▁Split	-6781
▁screenshot	-6782
▁guarant	-6783
ynchronous	-6784
_0,	-6785
ayers	-6786
mData	-6787
Hierarchy	-6788
▁mSet	-6789
Constraints	-6790
Resume	-6791
▁scope	-6792
identity	-6793
ActivityRecord	-6794
erge	-6795
▁EVENT	-6796
Requests	-6797
▁mNative	-6798
LargeTest	-6799
initMocks	-6800
focus	-6801
CUSTOM	-6802
addView	-6803
▁mLogger	-6804
LongPress	-6805
▁rectangle	-6806
etic	-6807
▁Looper	-6808
▁mCallbacks	-6809
RIER	-6810
▁annot	-6811
▁separ	-6812
ollapse	-6813
lications	-6814
IZED	-6815
tone	-6816
▁fieldId	-6817
GestureEvent	-6818
▁representing	-6819
SHI	-6820
Tuner	-6821
Toggle	-6822
imeType	-6823
Provides	-6824
▁download	-6825
DIR	-6826
Jank	-6827
CREATE	-6828
getM	-6829
ilent	-6830
ALER	-6831
▁Tim	-6832
TOOTH	-6833
container	-6834
▁Cell	-6835
Restart	-6836
FREQU	-6837
▁occur	-6838
mplitude	-6839
▁well	-6840
▁Manifest	-6841
Initialized	-6842
Seq	-6843
ensions	-6844
MODI	-6845
doesNot	-6846
▁waiting	-6847
=$	-6848
PATH	-6849
ENCOD	-6850
REPORT	-6851
Measured	-6852
▁reported	-6853
▁supplied	-6854
ERY	-6855
[0].	-6856
card	-6857
Enroll	-6858
qualifiers	-6859
▁arguments	-6860
serve	-6861
ENTIAL	-6862
ocol	-6863
▁Parsed	-6864
▁Render	-6865
▁inline	-6866
AutoBrightness	-6867
PED	-6868
illed	-6869
AppWidget	-6870
▁translation	-6871
▁successfully	-6872
iter	-6873
Least	-6874
▁SYSTEM	-6875
DeviceId	-6876
▁decl	-6877
ording	-6878
alle	-6879
▁mName	-6880
ArrayMap	-6881
OrCreate	-6882
onth	-6883
▁enum	-6884
Fullscreen	-6885
Quality	-6886
▁Overlay	-6887
ArraySet	-6888
▁defaultValue	-6889
AK	-6890
PEG	-6891
▁...	-6892
Escrow	-6893
eech	-6894
▁dir	-6895
DIRECTION	-6896
ARG	-6897
CHECK	-6898
SHIFT	-6899
▁Gener	-6900
▁testing	-6901
cap	-6902
▁ev	-6903
Lockout	-6904
▁depend	-6905
▁period	-6906
dx	-6907
HAS	-6908
PIC	-6909
BAND	-6910
native	-6911
▁MINUTE	-6912
▁Program	-6913
Reboot	-6914
▁Slogf	-6915
▁invoke	-6916
Readable	-6917
');	-6918
Family	-6919
▁large	-6920
▁onAnimation	-6921
Uses	-6922
▁Any	-6923
Toast	-6924
touch	-6925
▁mType	-6926
▁LayoutParams	-6927
▁PER	-6928
SHOT	-6929
Udfps	-6930
output	-6931
Worker	-6932
CS	-6933
▁mBubble	-6934
Availability	-6935
▁im	-6936
addAll	-6937
Wakefulness	-6938
[0]);	-6939
Ge	-6940
etc	-6941
oost	-6942
▁fraction	-6943
Im	-6944
Provisioned	-6945
LEG	-6946
▁meta	-6947
transport	-6948
ropri	-6949
▁Some	-6950
000;	-6951
▁Dialog	-6952
▁shouldn	-6953
oin	-6954
ropriate	-6955
mHas	-6956
▁won	-6957
getMax	-6958
Enforce	-6959
▁completed	-6960
▁mNum	-6961
▁interval	-6962
umed	-6963
clusive	-6964
▁WindowState	-6965
▁coordinates	-6966
Mutable	-6967
UMENT	-6968
Doc	-6969
EXTERNAL	-6970
NotificationRow	-6971
▁Filter	-6972
▁consumer	-6973
▁defStyleAttr	-6974
FL	-6975
bot	-6976
PHONY	-6977
▁STAT	-6978
▁Usage	-6979
▁mTouch	-6980
▁PROCESS	-6981
Suggestions	-6982
save	-6983
▁est	-6984
▁STATUS	-6985
▁mRemote	-6986
scriptions	-6987
ION	-6988
CAPTURE	-6989
▁append	-6990
▁One	-6991
BUCKET	-6992
Divider	-6993
▁outside	-6994
▁collection	-6995
▁delegate	-6996
CED	-6997
GENCY	-6998
QUERY	-6999
matches	-7000
APPS	-7001
ORAGE	-7002
Dozing	-7003
Stylus	-7004
Posture	-7005
REQUIRED	-7006
CLU	-7007
Changing	-7008
▁Ret	-7009
▁db	-7010
QSTile	-7011
Bubbles	-7012
fingerprint	-7013
WHI	-7014
▁locked	-7015
▁modify	-7016
igit	-7017
▁Flags	-7018
getBounds	-7019
[]>	-7020
▁appInfo	-7021
▁targets	-7022
mDisplayContent	-7023
servable	-7024
4,	-7025
Hearing	-7026
INTERACTION	-7027
div	-7028
aque	-7029
edit	-7030
ersive	-7031
usb	-7032
RANGE	-7033
iving	-7034
connection	-7035
▁execut	-7036
▁remaining	-7037
apper	-7038
▁DISPLAY	-7039
getActivity	-7040
var	-7041
Entity	-7042
main	-7043
▁mSub	-7044
Forward	-7045
padding	-7046
▁rollback	-7047
IENT	-7048
utor	-7049
Closed	-7050
NUMBER	-7051
▁2017	-7052
getTop	-7053
ively	-7054
▁sound	-7055
Absolute	-7056
addAction	-7057
ingPrintWriter	-7058
persist	-7059
HARDWARE	-7060
▁Sm	-7061
▁Wallpaper	-7062
toHexString	-7063
ContentProvider	-7064
LP	-7065
setIs	-7066
millis	-7067
▁radius	-7068
▁distance	-7069
utorial	-7070
Recovery	-7071
overable	-7072
▁directory	-7073
MediaProjection	-7074
AKE	-7075
▁Watch	-7076
▁stopped	-7077
JOB	-7078
Angle	-7079
▁Fragment	-7080
CRED	-7081
receiver	-7082
APER	-7083
AppOp	-7084
lling	-7085
GroupId	-7086
getData	-7087
ZenPolicy	-7088
▁sequence	-7089
ProcessRecord	-7090
▁findViewById	-7091
STY	-7092
TILE	-7093
rotation	-7094
uite	-7095
▁Tests	-7096
prepare	-7097
▁Compat	-7098
akReference	-7099
▁restart	-7100
▁fallback	-7101
WindowInfo	-7102
fid	-7103
lush	-7104
acted	-7105
▁motion	-7106
StateChange	-7107
bm	-7108
mOn	-7109
▁Pl	-7110
ouse	-7111
sFor	-7112
Fallback	-7113
ArgumentCaptor	-7114
ncy	-7115
▁libr	-7116
track	-7117
phrase	-7118
▁namespace	-7119
Based	-7120
TestableLooper	-7121
▁9,	-7122
mask	-7123
sound	-7124
▁calcul	-7125
InputEvent	-7126
▁BatteryStats	-7127
▁ProcessRecord	-7128
▁known	-7129
▁controls	-7130
▁coordinate	-7131
anges	-7132
▁able	-7133
measure	-7134
CEC	-7135
Bars	-7136
Skip	-7137
Fling	-7138
Reply	-7139
etime	-7140
covery	-7141
MANAGED	-7142
REPORTED	-7143
sendMessage	-7144
GLOB	-7145
Sizes	-7146
Charging	-7147
BLUETOOTH	-7148
▁certificate	-7149
▁ids	-7150
TimeIn	-7151
compute	-7152
▁underlying	-7153
▁processing	-7154
▁8,	-7155
BYTES	-7156
oords	-7157
Unique	-7158
▁Shade	-7159
▁inner	-7160
▁factory	-7161
Unexpected	-7162
SplitScreen	-7163
SUBSCRIPTION	-7164
▁CO	-7165
Unable	-7166
impleName	-7167
complet	-7168
CONNECTION	-7169
ERGENCY	-7170
▁player	-7171
ProviderInfo	-7172
Idx	-7173
Blob	-7174
▁game	-7175
extras	-7176
BoundsState	-7177
rong	-7178
▁EGL	-7179
alsingManager	-7180
son	-7181
Speed	-7182
DESKTOP	-7183
QUALITY	-7184
▁Det	-7185
fidence	-7186
▁sample	-7187
Frontend	-7188
InstanceId	-7189
▁MeasureSpec	-7190
?)	-7191
Binds	-7192
▁creating	-7193
menu	-7194
▁Checks	-7195
▁Output	-7196
keyboard	-7197
getActive	-7198
▁sw	-7199
await	-7200
KEYBOARD	-7201
estination	-7202
Dark	-7203
ingTo	-7204
izable	-7205
Slop	-7206
▁lower	-7207
▁vibrator	-7208
irplane	-7209
▁apk	-7210
inflate	-7211
Thresholds	-7212
Rtl	-7213
▁Imp	-7214
Suspend	-7215
▁restrictions	-7216
▁QS	-7217
Aidl	-7218
fail	-7219
Wallet	-7220
ToTarget	-7221
writeToParcel	-7222
ublish	-7223
observer	-7224
getMessage	-7225
▁lockscreen	-7226
RuntimeException	-7227
selected	-7228
traceEnd	-7229
ALARM	-7230
▁inside	-7231
Processes	-7232
Structure	-7233
▁triggered	-7234
par	-7235
spot	-7236
omes	-7237
Specs	-7238
▁pname	-7239
▁mConnection	-7240
Br	-7241
▁granted	-7242
addCallback	-7243
Atomic	-7244
LOCKSCREEN	-7245
TRANSITION	-7246
▁mBackground	-7247
Configurations	-7248
RunningTaskInfo	-7249
▁bouncer	-7250
traceBegin	-7251
////////////////	-7252
Into	-7253
VIDEO	-7254
TELEPHONY	-7255
▁restricted	-7256
CC	-7257
SubId	-7258
NetworkType	-7259
COR	-7260
Pss	-7261
MAGN	-7262
Assistant	-7263
dma	-7264
FINIS	-7265
CARRIER	-7266
aterial	-7267
ClassName	-7268
short	-7269
TIO	-7270
▁dst	-7271
notif	-7272
apk	-7273
Soft	-7274
▁let	-7275
ermin	-7276
Errors	-7277
PREFER	-7278
▁junit	-7279
Columns	-7280
▁ByteBuffer	-7281
▁DeviceState	-7282
arsh	-7283
▁day	-7284
iding	-7285
Fixture	-7286
▁closed	-7287
builder	-7288
isValid	-7289
▁subtype	-7290
mUid	-7291
UserAction	-7292
▁Sim	-7293
DurationMillis	-7294
Safe	-7295
Break	-7296
PHA	-7297
OrSelf	-7298
WRITE	-7299
getMain	-7300
keepRunning	-7301
InputManager	-7302
================	-7303
PIN	-7304
celer	-7305
AlarmManager	-7306
RESP	-7307
ulse	-7308
Medium	-7309
upports	-7310
CENTER	-7311
inline	-7312
▁Client	-7313
Policies	-7314
▁Subscription	-7315
hal	-7316
▁runtime	-7317
CallingUid	-7318
PERMISSIONS	-7319
Routing	-7320
▁mPackage	-7321
ival	-7322
Hints	-7323
Script	-7324
instance	-7325
▁mRoot	-7326
▁mManager	-7327
Indication	-7328
▁none	-7329
BUFFER	-7330
ateway	-7331
secondary	-7332
testScope	-7333
TaskOrganizer	-7334
▁7,	-7335
Once	-7336
Expect	-7337
Launched	-7338
Slider	-7339
feature	-7340
TaskManager	-7341
HID	-7342
ILD	-7343
stack	-7344
Weight	-7345
igible	-7346
progress	-7347
▁Vibrator	-7348
▁communal	-7349
Perform	-7350
Ranking	-7351
Animated	-7352
▁pattern	-7353
▁How	-7354
PROVISION	-7355
▁"\	-7356
eared	-7357
RESPON	-7358
▁respon	-7359
DISALLOW	-7360
▁transfer	-7361
Died	-7362
Oper	-7363
▁manage	-7364
▁changing	-7365
CU	-7366
gt	-7367
ourn	-7368
CLOSE	-7369
RATIO	-7370
Verify	-7371
Attempt	-7372
ScreenState	-7373
leared	-7374
AllReady	-7375
▁AudioAttributes	-7376
actions	-7377
▁written	-7378
▁getCurrent	-7379
▁crash	-7380
▁De	-7381
Destroyed	-7382
spa	-7383
DOZE	-7384
▁Date	-7385
ifetime	-7386
ResourceId	-7387
GO	-7388
hemer	-7389
▁2019	-7390
Recommend	-7391
CTOR	-7392
ICES	-7393
otes	-7394
DISMIS	-7395
Occluded	-7396
agnifier	-7397
Tokens	-7398
isUser	-7399
getLong	-7400
mListener	-7401
FC	-7402
▁etc	-7403
Accounts	-7404
▁dynamic	-7405
MOD	-7406
Math	-7407
SERVER	-7408
getAll	-7409
VOICE	-7410
Multiple	-7411
rowser	-7412
▁1000;	-7413
▁SOURCE	-7414
▁waitForIdle	-7415
Vote	-7416
PASSWORD	-7417
▁configured	-7418
▁ambient	-7419
bose	-7420
STORAGE	-7421
Internet	-7422
▁2);	-7423
CONTA	-7424
Scroller	-7425
PRESS	-7426
atile	-7427
REMOVE	-7428
Recents	-7429
▁desktop	-7430
args	-7431
quick	-7432
fw	-7433
Red	-7434
▁Read	-7435
Watcher	-7436
▁Screen	-7437
▁document	-7438
Association	-7439
▁ContentResolver	-7440
OTA	-7441
▁red	-7442
▁appropriate	-7443
▁lib	-7444
Manual	-7445
▁displays	-7446
▁LOG	-7447
Epoch	-7448
CALLBACK	-7449
UC	-7450
ROOT	-7451
▁Game	-7452
▁iter	-7453
Clicked	-7454
DeviceOwner	-7455
Ns	-7456
IGN	-7457
HAL	-7458
plash	-7459
Pressed	-7460
Freeform	-7461
Minimum	-7462
riteria	-7463
ulation	-7464
▁mColor	-7465
ForPackage	-7466
RAP	-7467
gen	-7468
▁Le	-7469
▁press	-7470
IGATION	-7471
Tracing	-7472
setData	-7473
▁manifest	-7474
▁"""	-7475
▁doc	-7476
EMPTY	-7477
cursor	-7478
mSession	-7479
▁inOrder	-7480
▁edit	-7481
getApp	-7482
compare	-7483
▁assume	-7484
listOf	-7485
ScreenOff	-7486
▁including	-7487
configuration	-7488
DisplayManager	-7489
Fgs	-7490
Pause	-7491
Recipient	-7492
PAPER	-7493
▁swipe	-7494
RC	-7495
])	-7496
companion	-7497
DRAG	-7498
Correction	-7499
Authenticator	-7500
AudioAttributes	-7501
IVE	-7502
TEMP	-7503
html	-7504
imal	-7505
COMPAT	-7506
Deliver	-7507
▁module	-7508
Startable	-7509
Tx	-7510
center	-7511
Overlays	-7512
=").	-7513
REGIS	-7514
▁{"	-7515
▁Retrie	-7516
calculate	-7517
▁modified	-7518
▁installer	-7519
AudioDevice	-7520
getDrawable	-7521
bedding	-7522
▁captor	-7523
▁mClock	-7524
▁notified	-7525
getNext	-7526
▁Change	-7527
▁ResolveInfo	-7528
QUE	-7529
abs	-7530
mGlobal	-7531
▁parsed	-7532
TelephonyManager	-7533
JobInfo	-7534
category	-7535
isNot	-7536
endMode	-7537
quality	-7538
▁projection	-7539
vant	-7540
▁2018	-7541
Handles	-7542
mUserId	-7543
StartTime	-7544
CoroutineScope	-7545
▁cpu	-7546
gnoring	-7547
Surfaces	-7548
disabled	-7549
visor	-7550
umption	-7551
▁mNetwork	-7552
SCO	-7553
OFT	-7554
what	-7555
▁agent	-7556
arceled	-7557
lifecycle	-7558
▁JobStatus	-7559
▁satellite	-7560
Cre	-7561
▁date	-7562
eekBar	-7563
▁cancellation	-7564
uilt	-7565
▁isIn	-7566
▁voice	-7567
ryption	-7568
cremental	-7569
Authority	-7570
▁Don	-7571
present	-7572
virtual	-7573
unc	-7574
▁bug	-7575
Headers	-7576
▁Active	-7577
span	-7578
▁len	-7579
inary	-7580
never	-7581
▁animated	-7582
LAST	-7583
Common	-7584
IconView	-7585
Renderer	-7586
ypically	-7587
Ca	-7588
ns	-7589
FLOAT	-7590
Socket	-7591
QuickAffordance	-7592
cmd	-7593
arily	-7594
spy	-7595
▁my	-7596
Core	-7597
▁Ens	-7598
▁going	-7599
▁mDialog	-7600
Motion	-7601
switch	-7602
RUNTIME	-7603
▁processes	-7604
Away	-7605
▁Rout	-7606
Delete	-7607
toArray	-7608
Gl	-7609
Smart	-7610
VICES	-7611
▁Invalid	-7612
▁forward	-7613
OPER	-7614
ARING	-7615
▁bits	-7616
Channels	-7617
▁registration	-7618
Handed	-7619
reater	-7620
▁panel	-7621
override	-7622
▁occ	-7623
mClient	-7624
material	-7625
onStart	-7626
DurationMs	-7627
Parse	-7628
▁CALL	-7629
Contain	-7630
▁mSensor	-7631
TRANSPORT	-7632
▁many	-7633
imized	-7634
Attention	-7635
ural	-7636
Cancellation	-7637
startActivity	-7638
▁BenchmarkState	-7639
ai	-7640
RTUAL	-7641
RESTRICTION	-7642
ContentCapture	-7643
▁win	-7644
enum	-7645
(0));	-7646
asing	-7647
Av	-7648
rypt	-7649
utdown	-7650
Scaling	-7651
ImageView	-7652
▁subclass	-7653
▁mListeners	-7654
Durations	-7655
DevicePolicy	-7656
DisplayContent	-7657
▁ActivityOptions	-7658
Animate	-7659
▁around	-7660
▁detection	-7661
ometh	-7662
omething	-7663
▁RecyclerView	-7664
▁-1);	-7665
GLOBAL	-7666
▁Notif	-7667
toFloat	-7668
OnScreen	-7669
Could	-7670
earable	-7671
success	-7672
Education	-7673
Unfold	-7674
getView	-7675
▁Property	-7676
▁conversation	-7677
▁"";	-7678
▁iss	-7679
Fully	-7680
▁Listener	-7681
ofence	-7682
▁mNext	-7683
▁FIELD	-7684
getBytes	-7685
snapshot	-7686
▁seconds	-7687
▁lifecycle	-7688
Fd	-7689
▁&=	-7690
▁123	-7691
ainty	-7692
StateLocked	-7693
mController	-7694
getConfiguration	-7695
ROU	-7696
iate	-7697
▁SQLite	-7698
Alignment	-7699
▁emergency	-7700
▁letterbox	-7701
IPE	-7702
oted	-7703
TOK	-7704
oose	-7705
▁Vcn	-7706
▁mCamera	-7707
Underlying	-7708
▁WindowInsets	-7709
RESET	-7710
▁Clear	-7711
▁ai	-7712
▁launcher	-7713
Decoration	-7714
▁";	-7715
▁VER	-7716
TERED	-7717
.....	-7718
BLOCK	-7719
▁Pattern	-7720
ety	-7721
mPackageManager	-7722
TAP	-7723
oned	-7724
▁elapsed	-7725
Cancelled	-7726
Temperature	-7727
▁bad	-7728
Behind	-7729
DesktopMode	-7730
▁getDefault	-7731
mPending	-7732
▁compare	-7733
MON	-7734
▁allowlist	-7735
bugging	-7736
▁features	-7737
▁requestId	-7738
ART	-7739
runOn	-7740
activityInfo	-7741
componentName	-7742
hel	-7743
▁SIM	-7744
Shape	-7745
UiState	-7746
▁constants	-7747
apps	-7748
▁Link	-7749
▁sessions	-7750
preference	-7751
▁uptime	-7752
PT	-7753
▁-=	-7754
▁against	-7755
▁handling	-7756
▁StateFlow	-7757
runAllReady	-7758
Parameterized	-7759
▁LinearLayout	-7760
WAR	-7761
Strings	-7762
Satisfied	-7763
ts	-7764
Compose	-7765
FaceAuth	-7766
▁Communal	-7767
▁resolver	-7768
AE	-7769
▁}.	-7770
HIDE	-7771
JECT	-7772
Rank	-7773
▁(!(	-7774
ontend	-7775
▁My	-7776
Chunk	-7777
▁printer	-7778
veal	-7779
Intents	-7780
▁Install	-7781
anyBoolean	-7782
▁provision	-7783
mH	-7784
▁TEXT	-7785
▁profiles	-7786
ExtendedMockito	-7787
vanced	-7788
pdating	-7789
▁LA	-7790
▁mPm	-7791
▁belong	-7792
▁ZenMode	-7793
▁anyLong	-7794
*/);	-7795
TRACK	-7796
▁Face	-7797
Chooser	-7798
▁appear	-7799
ADDR	-7800
Phase	-7801
▁runTest	-7802
CREDENTIAL	-7803
▁InputDevice	-7804
▁6;	-7805
invoke	-7806
▁KEYCODE	-7807
▁ShortcutInfo	-7808
DOC	-7809
▁2.	-7810
SPLIT	-7811
▁tint	-7812
lectric	-7813
Categories	-7814
ProfileOwner	-7815
FIER	-7816
MPLE	-7817
Random	-7818
Binding	-7819
▁mLocal	-7820
▁performed	-7821
VirtualDevice	-7822
UG	-7823
bl	-7824
pi	-7825
istic	-7826
uplic	-7827
which	-7828
▁APIs	-7829
▁cert	-7830
SourceType	-7831
poses	-7832
OrNull	-7833
isActive	-7834
▁initialized	-7835
Prop	-7836
▁launched	-7837
UUID	-7838
_000	-7839
▁0));	-7840
RECENT	-7841
▁enough	-7842
▁Component	-7843
ommended	-7844
▁Feature	-7845
▁special	-7846
oreograph	-7847
256	-7848
Freq	-7849
RADIO	-7850
▁role	-7851
cluding	-7852
etaData	-7853
MAGNIFICATION	-7854
RING	-7855
ENCODING	-7856
TRAINT	-7857
Caption	-7858
********	-7859
▁replace	-7860
PACKAGES	-7861
sendToTarget	-7862
day	-7863
ATTRI	-7864
otspot	-7865
▁alias	-7866
▁leash	-7867
▁Cached	-7868
▁mBackup	-7869
pull	-7870
▁err	-7871
▁mAnimation	-7872
avor	-7873
▁codec	-7874
UserData	-7875
edCorner	-7876
▁incoming	-7877
▁placeholder	-7878
Done	-7879
summary	-7880
▁resize	-7881
InPicture	-7882
oreographer	-7883
(2);	-7884
CrossProfile	-7885
BackgroundColor	-7886
▁IMS	-7887
▁Control	-7888
IntentSender	-7889
gy	-7890
eric	-7891
flush	-7892
posed	-7893
umbers	-7894
▁isEnabled	-7895
jor	-7896
ula	-7897
StorageManager	-7898
509	-7899
icient	-7900
▁negative	-7901
description	-7902
LEEP	-7903
STRE	-7904
Deferred	-7905
specific	-7906
▁compatibility	-7907
sl	-7908
ZEN	-7909
VERY	-7910
▁den	-7911
ATELL	-7912
▁Exif	-7913
canvas	-7914
▁sending	-7915
SUPPORT	-7916
▁testSet	-7917
▁standard	-7918
▁characters	-7919
NavigationBar	-7920
Old	-7921
Axis	-7922
getTag	-7923
RESPONSE	-7924
▁contact	-7925
▁mProcess	-7926
amb	-7927
Mark	-7928
ained	-7929
onical	-7930
▁serial	-7931
▁newState	-7932
ql	-7933
FGS	-7934
invalid	-7935
achability	-7936
verter	-7937
ATELLITE	-7938
property	-7939
▁Fingerprint	-7940
▁TransitionState	-7941
WAYS	-7942
▁META	-7943
public	-7944
EMERGENCY	-7945
EAR	-7946
ilar	-7947
reat	-7948
▁100;	-7949
Normal	-7950
CallingOrSelf	-7951
NoMore	-7952
Staged	-7953
mt	-7954
api	-7955
▁form	-7956
Mirror	-7957
getChildAt	-7958
_8	-7959
Via	-7960
pid	-7961
▁Region	-7962
▁getNext	-7963
▁higher	-7964
filterfw	-7965
▁algorithm	-7966
plo	-7967
perf	-7968
▁Sup	-7969
▁axis	-7970
ACROSS	-7971
▁drawing	-7972
dir	-7973
OptIn	-7974
▁Adds	-7975
▁tool	-7976
▁domain	-7977
Exemption	-7978
TopActivity	-7979
rease	-7980
uting	-7981
▁Gnss	-7982
▁mobile	-7983
▁TRANSIT	-7984
▁included	-7985
AllMessages	-7986
PP	-7987
▁RectF	-7988
setColor	-7989
▁Current	-7990
StrongAuth	-7991
Lux	-7992
▁sa	-7993
IDENTI	-7994
▁mMenu	-7995
WALLPAPER	-7996
IMPORTANCE	-7997
▁xml	-7998
desktop	-7999
▁Matrix	-8000
▁des	-8001
Levels	-8002
▁mBase	-8003
FREQUENCY	-8004
frameworks	-8005
RemoteAnimation	-8006
ALPHA	-8007
original	-8008
▁RO	-8009
auto	-8010
Shift	-8011
ATTRIBU	-8012
DETECTION	-8013
Management	-8014
▁resolution	-8015
ServiceManager	-8016
Vcn	-8017
IMUM	-8018
MenuItem	-8019
▁providers	-8020
▁cmd	-8021
OutOf	-8022
▁exact	-8023
SECONDS	-8024
▁persistent	-8025
integer	-8026
IMPORTANT	-8027
▁Signature	-8028
▁gen	-8029
▁mFlags	-8030
ipple	-8031
▁Work	-8032
remote	-8033
ternateBouncer	-8034
Aod	-8035
ATTR	-8036
▁Canvas	-8037
▁NullPointer	-8038
▁ALL	-8039
▁volatile	-8040
▁startTime	-8041
Gu	-8042
Batch	-8043
Named	-8044
Timing	-8045
userHandle	-8046
Conn	-8047
▁margin	-8048
PackageState	-8049
▁tmp	-8050
▁appro	-8051
▁mFake	-8052
▁testOn	-8053
)</	-8054
<?>	-8055
Popup	-8056
served	-8057
▁Tuner	-8058
▁WINDOWING	-8059
▁mAt	-8060
energy	-8061
Validation	-8062
▁imm	-8063
Blocking	-8064
Canceled	-8065
readLong	-8066
▁packageManager	-8067
CPU	-8068
(100	-8069
TEGER	-8070
▁lazy	-8071
▁across	-8072
Remaining	-8073
▁assertNot	-8074
ertificates	-8075
▁getService	-8076
usel	-8077
rousel	-8078
MetricsLogger	-8079
▁EX	-8080
▁ca	-8081
Asset	-8082
TRANSI	-8083
verted	-8084
STANDBY	-8085
Detected	-8086
Gradient	-8087
▁creation	-8088
EJ	-8089
Sw	-8090
mb	-8091
afety	-8092
example	-8093
▁encoded	-8094
AudioSystem	-8095
TOKEN	-8096
cache	-8097
database	-8098
▁XmlUtils	-8099
▁structure	-8100
UpdateListener	-8101
[])	-8102
▁Parse	-8103
InProgress	-8104
VersionCode	-8105
▁Authentication	-8106
BEL	-8107
THER	-8108
total	-8109
isSystem	-8110
▁tracker	-8111
Pixels	-8112
timeout	-8113
▁Scenes	-8114
screenshot	-8115
▁BatteryConsumer	-8116
Wakeup	-8117
anit	-8118
▁tog	-8119
ADMIN	-8120
SIGNAL	-8121
Removal	-8122
▁Simple	-8123
RootView	-8124
▁pkgName	-8125
InputConnection	-8126
▁USB	-8127
TRAIT	-8128
lated	-8129
statusBar	-8130
mPackageName	-8131
▁association	-8132
SubscriptionId	-8133
MENU	-8134
▁Leg	-8135
▁Auto	-8136
Finger	-8137
Nothing	-8138
mConfig	-8139
setState	-8140
▁Desktop	-8141
checkArgument	-8142
Cur	-8143
▁Must	-8144
ivalent	-8145
substring	-8146
mI	-8147
Ele	-8148
▁SDK	-8149
sleep	-8150
extended	-8151
LayoutInflater	-8152
▁VI	-8153
Disk	-8154
▁helper	-8155
PublicKey	-8156
BOX	-8157
GAME	-8158
▁mean	-8159
SECURE	-8160
medi	-8161
part	-8162
addOn	-8163
▁Util	-8164
▁help	-8165
▁editor	-8166
Generator	-8167
certainty	-8168
▁mEnd	-8169
Contains	-8170
▁8;	-8171
real	-8172
▁SUB	-8173
SHADE	-8174
▁zone	-8175
ARI	-8176
▁zen	-8177
▁reading	-8178
Scheduled	-8179
VISIBILITY	-8180
▁animating	-8181
▁classes	-8182
▁Allocation	-8183
▁drawn	-8184
▁dr	-8185
WAIT	-8186
keySet	-8187
metadata	-8188
Sent	-8189
bouncer	-8190
▁PointF	-8191
affic	-8192
click	-8193
rypto	-8194
etered	-8195
▁happens	-8196
▁mRe	-8197
▁url	-8198
Lower	-8199
Alarms	-8200
Contact	-8201
getSimpleName	-8202
Stamp	-8203
▁blob	-8204
queued	-8205
inherit	-8206
veloper	-8207
▁corner	-8208
Backlight	-8209
Dpi	-8210
▁inset	-8211
▁SMS	-8212
▁moved	-8213
Automation	-8214
OnClickListener	-8215
Abs	-8216
drag	-8217
▁confirm	-8218
▁mCur	-8219
Sticky	-8220
▁Touch	-8221
▁Custom	-8222
▁Legacy	-8223
Validator	-8224
1"	-8225
GA	-8226
DAY	-8227
pin	-8228
Than	-8229
Ringer	-8230
Missing	-8231
▁reboot	-8232
ported	-8233
▁onView	-8234
ModeEnabled	-8235
AttributionTag	-8236
PI	-8237
=0;	-8238
Tex	-8239
▁dc	-8240
Snap	-8241
▁APK	-8242
ANDSC	-8243
▁fold	-8244
▁entire	-8245
▁mSplit	-8246
ANDSCAPE	-8247
▁shortcuts	-8248
ibrate	-8249
▁quick	-8250
▁privile	-8251
Hover	-8252
Counts	-8253
Generic	-8254
getSystem	-8255
getTarget	-8256
▁cancelled	-8257
XmlSerializer	-8258
ACTOR	-8259
Defer	-8260
▁band	-8261
▁assist	-8262
TypedArray	-8263
READY	-8264
condition	-8265
▁overridden	-8266
FFFF	-8267
PLAYBACK	-8268
setEnabled	-8269
Now	-8270
▁uids	-8271
aptics	-8272
Subscrib	-8273
ToWindow	-8274
NAVIGATION	-8275
▁mChildren	-8276
FINGERPRINT	-8277
OomAdj	-8278
complete	-8279
▁mResult	-8280
Dependency	-8281
LinearLayout	-8282
DeathRecipient	-8283
SL	-8284
OOM	-8285
Predicate	-8286
▁mRequest	-8287
BOUN	-8288
▁tear	-8289
removed	-8290
ActionMode	-8291
▁successful	-8292
▁MO	-8293
▁care	-8294
▁half	-8295
▁Reset	-8296
▁sleep	-8297
FREEFORM	-8298
parseInt	-8299
dd	-8300
MER	-8301
expect	-8302
ilename	-8303
deviceId	-8304
Disconnected	-8305
RequiresFlags	-8306
ANY	-8307
[1];	-8308
▁gets	-8309
PENDING	-8310
IR	-8311
Enc	-8312
[0],	-8313
▁")");	-8314
Loading	-8315
Sandbox	-8316
▁mHelper	-8317
navigation	-8318
▁scheduled	-8319
Connections	-8320
translation	-8321
▁less	-8322
module	-8323
Thumbnail	-8324
▁mAdapter	-8325
Stroke	-8326
Reasons	-8327
▁points	-8328
PORTRAIT	-8329
STANDARD	-8330
quivalent	-8331
Rss	-8332
hdmi	-8333
▁mRec	-8334
▁TimeZone	-8335
ProcessState	-8336
GES	-8337
IED	-8338
Nano	-8339
Author	-8340
▁fling	-8341
Privileges	-8342
▁Implement	-8343
▁DATA	-8344
▁Wake	-8345
People	-8346
CONFIGURATION	-8347
PID	-8348
Qui	-8349
LOCAL	-8350
▁Show	-8351
rypted	-8352
econdary	-8353
PowerSave	-8354
Mix	-8355
SMS	-8356
QUOTA	-8357
using	-8358
attach	-8359
▁GLenum	-8360
▁extension	-8361
FeatureFlags	-8362
SdkConstantType	-8363
▁cr	-8364
acent	-8365
debug	-8366
SINGLE	-8367
ertain	-8368
▁library	-8369
asInterface	-8370
▁mTime	-8371
▁Construct	-8372
▁doze	-8373
RUNNING	-8374
defined	-8375
sessionId	-8376
Compatibility	-8377
DBG	-8378
▁who	-8379
▁diff	-8380
jected	-8381
Critical	-8382
getLooper	-8383
▁construct	-8384
▁isVisible	-8385
Provisioning	-8386
▁mSize	-8387
POINTER	-8388
Discovery	-8389
FD	-8390
src	-8391
▁accounts	-8392
Aid	-8393
saved	-8394
assist	-8395
uction	-8396
ExpandedView	-8397
pared	-8398
achine	-8399
▁appId	-8400
▁share	-8401
free	-8402
curre	-8403
▁Clip	-8404
exists	-8405
▁outer	-8406
▁robot	-8407
mMockContext	-8408
▁SET	-8409
mType	-8410
InfoList	-8411
ScreenOn	-8412
WindowState	-8413
ROP	-8414
sim	-8415
▁word	-8416
▁magnification	-8417
Bal	-8418
▁prop	-8419
Origin	-8420
object	-8421
Degrees	-8422
▁engine	-8423
▁errors	-8424
ViewHost	-8425
uggested	-8426
Lines	-8427
verage	-8428
▁prior	-8429
LAUNCHER	-8430
Complication	-8431
APPE	-8432
align	-8433
▁Send	-8434
▁sets	-8435
▁mCached	-8436
▁separate	-8437
multi	-8438
▁AudioFormat	-8439
ured	-8440
layer	-8441
mFlags	-8442
▁prompt	-8443
▁blocked	-8444
LANDSCAPE	-8445
transform	-8446
▁identify	-8447
Composition	-8448
Mig	-8449
SCAN	-8450
▁best	-8451
▁checks	-8452
Modified	-8453
Messaging	-8454
CurrentUser	-8455
addListener	-8456
▁resId	-8457
Sensors	-8458
▁Button	-8459
▁IMPORTA	-8460
▁authority	-8461
getDisplayId	-8462
getCallingPid	-8463
uj	-8464
Tun	-8465
▁UR	-8466
Important	-8467
▁ValueAnimator	-8468
▁rs	-8469
SIDE	-8470
ites	-8471
▁Since	-8472
Configs	-8473
▁affect	-8474
INTERACT	-8475
▁segment	-8476
Displayed	-8477
edPackage	-8478
▁callingPid	-8479
▁mUserManager	-8480
▁MediaProjection	-8481
_88	-8482
mActive	-8483
▁purposes	-8484
▁eventTime	-8485
▁PRE	-8486
HashCode	-8487
▁Metrics	-8488
(0),	-8489
appear	-8490
▁anchor	-8491
Testable	-8492
PAN	-8493
PERS	-8494
aded	-8495
▁mDo	-8496
▁speed	-8497
handler	-8498
▁onStart	-8499
▁fl	-8500
events	-8501
▁annotation	-8502
SettingsProto	-8503
▁AL	-8504
BOOL	-8505
PICTURE	-8506
emptyList	-8507
FullScreen	-8508
▁className	-8509
Quiet	-8510
Secret	-8511
currency	-8512
getArgument	-8513
NOTIFICATIONS	-8514
Nav	-8515
mPkg	-8516
AlwaysOn	-8517
TestRunner	-8518
inheritDoc	-8519
PAU	-8520
▁ST	-8521
CACHED	-8522
ADDRESS	-8523
WindowController	-8524
HO	-8525
MU	-8526
Evalu	-8527
Steps	-8528
ircle	-8529
RecentTasks	-8530
getOp	-8531
MediumTest	-8532
QuickSettings	-8533
mToken	-8534
▁important	-8535
TransitionInfo	-8536
}:	-8537
▁consist	-8538
▁TypedValue	-8539
()");	-8540
dream	-8541
▁TIME	-8542
Wakelock	-8543
▁ss	-8544
CDMA	-8545
▁resume	-8546
3);	-8547
iol	-8548
Cast	-8549
inct	-8550
Loggable	-8551
▁mExtras	-8552
("\	-8553
Abi	-8554
CLUS	-8555
mEvent	-8556
HIDDEN	-8557
▁Initial	-8558
▁2016	-8559
▁chip	-8560
lucent	-8561
vibrator	-8562
▁consumed	-8563
ArrayEquals	-8564
Reg	-8565
ims	-8566
▁sign	-8567
AutofillId	-8568
▁Spannable	-8569
▁representation	-8570
Badge	-8571
Footer	-8572
▁wrapper	-8573
TypedObject	-8574
NGTH	-8575
▁mSp	-8576
divid	-8577
TRANSL	-8578
▁rules	-8579
▁Caller	-8580
▁FileDescriptor	-8581
ivot	-8582
Basic	-8583
▁adding	-8584
Cb	-8585
Merged	-8586
▁mAccessibility	-8587
cb	-8588
ALI	-8589
▁merge	-8590
BooleanArray	-8591
MED	-8592
TIN	-8593
decor	-8594
Calcul	-8595
Cookie	-8596
single	-8597
▁ON	-8598
REMOVED	-8599
getPath	-8600
Fast	-8601
Hour	-8602
safe	-8603
MODES	-8604
clone	-8605
Mapper	-8606
▁Domain	-8607
AUTOFILL	-8608
▁intended	-8609
▁requesting	-8610
ALWAYS	-8611
Embedded	-8612
Presenter	-8613
▁mBiometric	-8614
▁implemented	-8615
UV	-8616
node	-8617
▁2014	-8618
acting	-8619
▁aspect	-8620
Measurement	-8621
StateCallback	-8622
▁mZenModeHelper	-8623
ii	-8624
destroy	-8625
element	-8626
▁weight	-8627
▁").	-8628
▁Rot	-8629
(0)).	-8630
bundle	-8631
Connect	-8632
▁factor	-8633
▁pinned	-8634
▁compose	-8635
▁attributionTag	-8636
radio	-8637
oss	-8638
)");	-8639
▁"--	-8640
▁had	-8641
▁Clock	-8642
▁detect	-8643
▁mSource	-8644
TestUtils	-8645
wallpaper	-8646
▁ACTIVITY	-8647
▁getActivity	-8648
Upper	-8649
direct	-8650
gregate	-8651
▁Credential	-8652
Len	-8653
ices	-8654
▁radio	-8655
▁mParent	-8656
▁strategy	-8657
registerReceiver	-8658
Rotate	-8659
mEntry	-8660
▁depth	-8661
▁closing	-8662
ListAdapter	-8663
slot	-8664
RESTORE	-8665
Creation	-8666
NightMode	-8667
▁receiving	-8668
getSelected	-8669
Confirmation	-8670
NSS	-8671
exit	-8672
fade	-8673
RESIZE	-8674
aptive	-8675
▁Field	-8676
PowerRequest	-8677
OWNER	-8678
Saved	-8679
▁AUDIO	-8680
▁stage	-8681
▁mScroll	-8682
HDMI	-8683
after	-8684
▁Drag	-8685
getParcelable	-8686
ManagerMonitor	-8687
vi	-8688
Midi	-8689
▁mPl	-8690
Crash	-8691
Scenario	-8692
▁processed	-8693
▁packageInfo	-8694
Statement	-8695
▁correctly	-8696
▁instances	-8697
AOD	-8698
Areas	-8699
▁Temp	-8700
▁includes	-8701
assertFalse	-8702
ManagedProfile	-8703
DetectionService	-8704
Dock	-8705
LEAN	-8706
▁mis	-8707
ience	-8708
▁clients	-8709
▁divider	-8710
SELECTION	-8711
db	-8712
("/	-8713
CLEAR	-8714
Assets	-8715
Hotword	-8716
Scanner	-8717
ToDeath	-8718
▁Scroll	-8719
getResult	-8720
▁positive	-8721
▁sy	-8722
mAtm	-8723
CLIENT	-8724
▁mInfo	-8725
▁flicker	-8726
▁SparseIntArray	-8727
Fi	-8728
PROTE	-8729
Meters	-8730
WIDGET	-8731
header	-8732
▁mWidth	-8733
Exists	-8734
▁mWifi	-8735
Formula	-8736
STRENGTH	-8737
▁mTransition	-8738
ProtoLogGroup	-8739
aa	-8740
(3,	-8741
ology	-8742
▁RESULT	-8743
▁Perform	-8744
crete	-8745
▁Error	-8746
▁SECOND	-8747
Initiated	-8748
▁PERMISSION	-8749
▁IP	-8750
PREC	-8751
Commit	-8752
Matching	-8753
▁Carrier	-8754
Receivers	-8755
Preconditions	-8756
▁mSetFlagsRule	-8757
▁DisplayContent	-8758
Os	-8759
ROID	-8760
rary	-8761
▁takes	-8762
▁Provid	-8763
▁keyCode	-8764
Amplitude	-8765
hip	-8766
Term	-8767
http	-8768
getUri	-8769
▁broadcasts	-8770
Mah	-8771
abc	-8772
Pass	-8773
ookup	-8774
▁unit	-8775
Stable	-8776
curacy	-8777
▁handles	-8778
startsWith	-8779
▁reader	-8780
▁mTextView	-8781
LogicalAddress	-8782
Repo	-8783
invalidate	-8784
▁ph	-8785
Dead	-8786
RESU	-8787
Coords	-8788
Layers	-8789
anization	-8790
▁AndroidPackage	-8791
TimeZoneProvider	-8792
elp	-8793
LABEL	-8794
double	-8795
▁throwIf	-8796
ErrorCode	-8797
7,	-8798
HUB	-8799
▁Am	-8800
UNLOCK	-8801
Temporary	-8802
▁interrup	-8803
▁textView	-8804
NS	-8805
skip	-8806
ULAR	-8807
Aggregated	-8808
PowerState	-8809
▁according	-8810
AttributeSet	-8811
Alt	-8812
BOSE	-8813
LockScreen	-8814
ClassLoader	-8815
mobile	-8816
▁person	-8817
ibly	-8818
DENIED	-8819
▁defaults	-8820
▁bluetooth	-8821
▁PackageState	-8822
Foo	-8823
Frp	-8824
▁tx	-8825
Exif	-8826
▁MAN	-8827
enqueue	-8828
▁bypass	-8829
SIGNATURE	-8830
▁presentation	-8831
OES	-8832
▁>>	-8833
SOFT	-8834
Person	-8835
mMedia	-8836
▁warning	-8837
8,	-8838
Fl	-8839
▁buf	-8840
▁dead	-8841
▁popup	-8842
getTask	-8843
CONSTRAINT	-8844
orientation	-8845
Ring	-8846
CACHE	-8847
mTask	-8848
▁UUID	-8849
▁disk	-8850
▁mPkg	-8851
abling	-8852
Detached	-8853
Comparator	-8854
BatterySaver	-8855
KeyguardState	-8856
DateTime	-8857
▁counter	-8858
▁restored	-8859
SplitShade	-8860
RunWithLooper	-8861
getY	-8862
▁mTop	-8863
Packets	-8864
▁Buffer	-8865
Watchdog	-8866
azz	-8867
dist	-8868
ipher	-8869
▁MOCK	-8870
▁Convert	-8871
unication	-8872
Deleg	-8873
ECOND	-8874
render	-8875
storage	-8876
▁Removes	-8877
Dismissed	-8878
HA	-8879
100	-8880
SDK	-8881
▁estim	-8882
fieldId	-8883
Dreaming	-8884
▁LayoutInflater	-8885
Arc	-8886
▁fails	-8887
▁onClick	-8888
SystemUser	-8889
Interruption	-8890
▁7;	-8891
RECO	-8892
▁URL	-8893
ENSITY	-8894
▁Ensure	-8895
Pipeline	-8896
UIDialog	-8897
▁columns	-8898
FloatRange	-8899
▁255	-8900
Assisted	-8901
Verifier	-8902
▁ops	-8903
▁AUTO	-8904
▁reply	-8905
getComponent	-8906
ributionSource	-8907
▁FE	-8908
▁FOR	-8909
arger	-8910
▁Editor	-8911
Delivery	-8912
Such	-8913
Metric	-8914
WebView	-8915
▁mToken	-8916
getApplication	-8917
iP	-8918
1).	-8919
SLEEP	-8920
▁Helper	-8921
▁**	-8922
▁Method	-8923
ableView	-8924
redicate	-8925
SATELLITE	-8926
▁InputStream	-8927
Original	-8928
Immersive	-8929
Hw	-8930
ISE	-8931
UIC	-8932
▁sys	-8933
Preset	-8934
Decoder	-8935
handled	-8936
setting	-8937
▁toggle	-8938
▁mSelected	-8939
▁ep	-8940
clip	-8941
OUBLE	-8942
▁effects	-8943
DefaultDisplay	-8944
TimeSuggestion	-8945
ev	-8946
]");	-8947
onUser	-8948
JvmStatic	-8949
='	-8950
stub	-8951
ently	-8952
OUTPUT	-8953
pointer	-8954
▁dataset	-8955
PowerProfile	-8956
TOG	-8957
DISMISS	-8958
setUser	-8959
▁digest	-8960
ExitInfo	-8961
▁fullscreen	-8962
▁getNotification	-8963
Rx	-8964
FOLD	-8965
▁nav	-8966
ugment	-8967
Tooltip	-8968
DOCUMENT	-8969
▁mHeight	-8970
▁Cancellation	-8971
JE	-8972
Arch	-8973
Kernel	-8974
▁groups	-8975
getCount	-8976
gu	-8977
acer	-8978
aken	-8979
AppInfo	-8980
OPERATION	-8981
▁conditions	-8982
▁Magnification	-8983
SystemProperties	-8984
AndGet	-8985
ISTENT	-8986
VIRTUAL	-8987
▁candidate	-8988
URL	-8989
Charge	-8990
ugged	-8991
▁MATCH	-8992
gesture	-8993
hasSize	-8994
STRONG	-8995
fining	-8996
JECTION	-8997
ru	-8998
ird	-8999
▁CL	-9000
CONTEXT	-9001
Drawing	-9002
▁common	-9003
ColorInt	-9004
EditText	-9005
Extender	-9006
▁Updates	-9007
ScreenBrightness	-9008
ooled	-9009
number	-9010
options	-9011
xmlpull	-9012
Kb	-9013
mId	-9014
▁"0	-9015
▁NOTI	-9016
bitmap	-9017
▁latch	-9018
struction	-9019
writeLong	-9020
ENDED	-9021
NavBar	-9022
ViewId	-9023
Release	-9024
▁AudioDevice	-9025
TP	-9026
SOUND	-9027
subId	-9028
▁self	-9029
fragment	-9030
▁tearDown	-9031
setAlpha	-9032
irplaneMode	-9033
IGNO	-9034
aidl	-9035
mult	-9036
correct	-9037
mPackage	-9038
▁ContentProvider	-9039
yph	-9040
uicc	-9041
▁unless	-9042
MILLISECOND	-9043
▁mUn	-9044
acked	-9045
Actual	-9046
Country	-9047
▁Satellite	-9048
currentScene	-9049
QL	-9050
▁atom	-9051
HashSet	-9052
▁regard	-9053
Platform	-9054
urnIn	-9055
▁rows	-9056
▁Testable	-9057
▁remember	-9058
Invocation	-9059
Immediately	-9060
▁LE	-9061
▁Status	-9062
TRANSFER	-9063
▁mDatabase	-9064
DialogController	-9065
')	-9066
Rele	-9067
▁mig	-9068
▁Utils	-9069
▁quota	-9070
REFRESH	-9071
▁onUser	-9072
getInteger	-9073
ImageFormat	-9074
▁CAP	-9075
▁frames	-9076
▁certain	-9077
▁TypedArray	-9078
(1).	-9079
gers	-9080
eated	-9081
refresh	-9082
DeviceEntry	-9083
CallbackExecutor	-9084
secure	-9085
density	-9086
iration	-9087
ociation	-9088
supports	-9089
mInjector	-9090
▁packageNames	-9091
UTF	-9092
Above	-9093
fetch	-9094
▁Stop	-9095
generate	-9096
Converter	-9097
StackScroll	-9098
DRAW	-9099
ORIZ	-9100
atar	-9101
▁tab	-9102
POINT	-9103
▁enfor	-9104
▁vector	-9105
Protected	-9106
LauncherApps	-9107
▁mBrightness	-9108
Ip	-9109
1");	-9110
▁CEC	-9111
based	-9112
gisters	-9113
▁stable	-9114
GroupKey	-9115
▁encoding	-9116
▁released	-9117
Recommendation	-9118
Spans	-9119
▁Full	-9120
Lights	-9121
▁Playback	-9122
kely	-9123
Micro	-9124
USTED	-9125
▁Group	-9126
Matches	-9127
▁binding	-9128
WRAP	-9129
temp	-9130
mText	-9131
SITIVE	-9132
TOGGLE	-9133
Product	-9134
Sensitive	-9135
▁mPadding	-9136
▁verification	-9137
GPP	-9138
ICAL	-9139
duce	-9140
▁NET	-9141
~~~~~~~~	-9142
Adb	-9143
Par	-9144
▁Dream	-9145
Initialize	-9146
arceledList	-9147
CaptureSession	-9148
Vol	-9149
▁After	-9150
ational	-9151
isWithin	-9152
▁Automatic	-9153
Url	-9154
VILE	-9155
▁Off	-9156
utate	-9157
▁cover	-9158
dividual	-9159
Focusable	-9160
def	-9161
POST	-9162
ARENT	-9163
▁Doze	-9164
▁mList	-9165
MEM	-9166
Journ	-9167
▁newly	-9168
Previous	-9169
▁mediaData	-9170
ViewManager	-9171
OnBackInvoked	-9172
."	-9173
Obj	-9174
room	-9175
▁away	-9176
Require	-9177
appInfo	-9178
mSurface	-9179
LAN	-9180
ZONE	-9181
ones	-9182
▁Multi	-9183
Correct	-9184
getMeasured	-9185
TreeObserver	-9186
▁pendingIntent	-9187
yled	-9188
▁mBg	-9189
▁loop	-9190
MODIFY	-9191
Gestures	-9192
Different	-9193
▁mMessage	-9194
"})	-9195
200	-9196
TICK	-9197
step	-9198
▁PiP	-9199
▁recy	-9200
▁mHistory	-9201
AppTransition	-9202
UserInteractor	-9203
Vr	-9204
omains	-9205
▁mBuffer	-9206
mGlobalLock	-9207
EnergyConsumer	-9208
▁ObjectAnimator	-9209
egr	-9210
ocate	-9211
endant	-9212
Toolbar	-9213
▁Setting	-9214
▁mShould	-9215
▁quality	-9216
advance	-9217
ModeChanged	-9218
Mute	-9219
elow	-9220
osen	-9221
▁col	-9222
WHITE	-9223
ellig	-9224
SEARCH	-9225
▁launching	-9226
GENER	-9227
▁ANIM	-9228
COMPLETE	-9229
Typeface	-9230
▁acquire	-9231
▁Register	-9232
▁strength	-9233
▁getMax	-9234
SensorProperties	-9235
onot	-9236
ENDOR	-9237
▁Item	-9238
▁FEATURE	-9239
putBoolean	-9240
StatsManager	-9241
lap	-9242
tle	-9243
▁Mode	-9244
▁unlocked	-9245
▁increment	-9246
ICK	-9247
RUP	-9248
Some	-9249
STYLE	-9250
▁quer	-9251
Capacity	-9252
SECONDARY	-9253
Destination	-9254
JankMonitor	-9255
Lib	-9256
getX	-9257
▁par	-9258
▁Perf	-9259
command	-9260
ArgRequired	-9261
serviceInfo	-9262
buf	-9263
▁ge	-9264
INSET	-9265
▁Allow	-9266
▁useful	-9267
Subtitle	-9268
ArrayUtils	-9269
[3	-9270
Encoder	-9271
Waiting	-9272
▁Interface	-9273
UND	-9274
▁Em	-9275
▁bi	-9276
commit	-9277
Testing	-9278
▁define	-9279
▁CONTENT	-9280
▁filtered	-9281
▁mPermission	-9282
targetSdkVersion	-9283
opied	-9284
▁nano	-9285
entral	-9286
▁Write	-9287
▁clone	-9288
MetricsEvent	-9289
Bias	-9290
Shelf	-9291
ATTERN	-9292
OFFSET	-9293
nounce	-9294
onError	-9295
▁occurs	-9296
Exclusion	-9297
Extractor	-9298
▁mHdmiCec	-9299
20.	-9300
1));	-9301
HINT	-9302
▁mStack	-9303
▁However	-9304
elligence	-9305
onTransition	-9306
HapticFeedback	-9307
RM	-9308
GRA	-9309
riever	-9310
▁mFirst	-9311
Appeared	-9312
▁succeed	-9313
▁mBroadcast	-9314
Mis	-9315
carrier	-9316
protolog	-9317
perftests	-9318
Reachability	-9319
▁FrameLayout	-9320
SCHED	-9321
resume	-9322
Existing	-9323
▁getUser	-9324
HearingAid	-9325
soundtrigger	-9326
(!	-9327
Edu	-9328
▁becomes	-9329
▁playing	-9330
Supervisor	-9331
restricted	-9332
ors	-9333
▁mE	-9334
ocusId	-9335
STOPPED	-9336
▁Gesture	-9337
▁loading	-9338
Coroutine	-9339
▁intercept	-9340
Subscriptions	-9341
Drawn	-9342
FRONT	-9343
Using	-9344
grant	-9345
PRIVILE	-9346
increase	-9347
initialize	-9348
createFromParcel	-9349
bg	-9350
:00	-9351
URES	-9352
DREAM	-9353
filer	-9354
Shaper	-9355
▁START	-9356
DisplayMode	-9357
}).	-9358
locale	-9359
▁*/));	-9360
▁VALID	-9361
▁chain	-9362
urround	-9363
▁scheme	-9364
SharedLibrary	-9365
▁mainExecutor	-9366
Blue	-9367
▁inc	-9368
EXEMP	-9369
▁Edit	-9370
▁evalu	-9371
▁icons	-9372
WidgetId	-9373
SoundModel	-9374
mem	-9375
large	-9376
▁emit	-9377
▁applies	-9378
▁cleared	-9379
▁intents	-9380
▁scrolling	-9381
UriPermission	-9382
Guts	-9383
atom	-9384
▁Provides	-9385
IOD	-9386
Blur	-9387
Writ	-9388
▁dot	-9389
▁conn	-9390
TransitionStep	-9391
▁mMainExecutor	-9392
▁OFF	-9393
ENTRY	-9394
nano	-9395
AFTER	-9396
▁wrong	-9397
missing	-9398
▁Keyboard	-9399
▁detected	-9400
GOR	-9401
SUR	-9402
ian	-9403
))).	-9404
Decl	-9405
EXIT	-9406
GORITH	-9407
previous	-9408
▁greater	-9409
Challenge	-9410
Disconnect	-9411
WorkerThread	-9412
InsetsController	-9413
▁Id	-9414
Cross	-9415
ambda	-9416
bytes	-9417
Dumpable	-9418
getSource	-9419
▁Duration	-9420
▁definition	-9421
column	-9422
▁earli	-9423
Corners	-9424
setBounds	-9425
▁AppWidget	-9426
linkToDeath	-9427
SystemFeature	-9428
Namespace	-9429
▁relevant	-9430
▁DisplayManager	-9431
zz	-9432
ARE	-9433
▁mUi	-9434
owner	-9435
▁held	-9436
perties	-9437
Landscape	-9438
▁Internal	-9439
▁canceled	-9440
PhysicalAddress	-9441
(6	-9442
PES	-9443
Upd	-9444
▁({@	-9445
riggers	-9446
▁deleted	-9447
▁gravity	-9448
Expression	-9449
ProtoEnums	-9450
ENTIC	-9451
mProc	-9452
Enrolled	-9453
RESOURCE	-9454
INVISIBLE	-9455
▁smartspace	-9456
▁mWindowManager	-9457
TONE	-9458
mMax	-9459
▁sort	-9460
▁async	-9461
▁People	-9462
▁userData	-9463
Privileged	-9464
bindService	-9465
▁mTransport	-9466
_10	-9467
▁ne	-9468
▁dpm	-9469
arshal	-9470
acquire	-9471
mManager	-9472
AccountHandle	-9473
▁interpolator	-9474
Comb	-9475
USIC	-9476
WHEN	-9477
dest	-9478
WATCH	-9479
▁LOCK	-9480
onoton	-9481
▁commit	-9482
▁LogLevel	-9483
None	-9484
▁PROPERTY	-9485
Definition	-9486
▁delivered	-9487
▁ContextHub	-9488
▁Index	-9489
▁privacy	-9490
▁invisible	-9491
▁mConstants	-9492
IRE	-9493
wards	-9494
▁random	-9495
estation	-9496
▁opening	-9497
Bugreport	-9498
cingAdmin	-9499
requireViewById	-9500
3>	-9501
Help	-9502
▁HOUR	-9503
▁tiles	-9504
▁1000);	-9505
executor	-9506
▁properly	-9507
Suppressed	-9508
TranslationY	-9509
▁DisplayInfo	-9510
MODEM	-9511
bound	-9512
route	-9513
Applied	-9514
▁Number	-9515
INTERRUP	-9516
TUR	-9517
thetic	-9518
▁along	-9519
▁cross	-9520
Inactive	-9521
▁ongoing	-9522
Allocation	-9523
AttachedToWindow	-9524
1:	-9525
Attrs	-9526
▁cookie	-9527
▁updating	-9528
mTransaction	-9529
ChangeEnabled	-9530
Big	-9531
Gen	-9532
velop	-9533
agraph	-9534
▁Search	-9535
Isolated	-9536
▁determin	-9537
▁measured	-9538
▁resolveInfo	-9539
fc	-9540
SAVE	-9541
▁Also	-9542
▁larger	-9543
▁visual	-9544
Historical	-9545
▁responsible	-9546
IdleController	-9547
PECT	-9548
also	-9549
mRoot	-9550
▁mStatus	-9551
▁Abstract	-9552
lexibility	-9553
hest	-9554
▁loader	-9555
priority	-9556
▁anything	-9557
▁userTracker	-9558
▁Cond	-9559
▁wrap	-9560
CANCELED	-9561
Negative	-9562
anceable	-9563
▁onReceive	-9564
Authenticated	-9565
mA	-9566
++]	-9567
▁TS	-9568
EXACT	-9569
replace	-9570
▁Inject	-9571
NED	-9572
ents	-9573
TRUSTED	-9574
▁Mobile	-9575
▁script	-9576
▁SER	-9577
▁mOrig	-9578
FailCause	-9579
▁CoroutineScope	-9580
▁displayManager	-9581
DELE	-9582
▁0),	-9583
▁tags	-9584
sample	-9585
▁energy	-9586
▁holding	-9587
AccountManager	-9588
Bt	-9589
MB	-9590
EDGE	-9591
ROLE	-9592
Rows	-9593
charAt	-9594
mStart	-9595
▁shader	-9596
▁Calendar	-9597
▁Notifies	-9598
▁executed	-9599
▁sensorId	-9600
Fps	-9601
avers	-9602
Bright	-9603
address	-9604
isShowing	-9605
▁createTask	-9606
Dnd	-9607
ibern	-9608
CONNEC	-9609
TimeUs	-9610
charge	-9611
ALGORITH	-9612
▁doAnswer	-9613
▁PackageSetting	-9614
atewayConnection	-9615
CLUDE	-9616
SWIPE	-9617
inish	-9618
Nested	-9619
withMessage	-9620
MILLISECONDS	-9621
SensorManager	-9622
-0	-9623
Ro	-9624
TRL	-9625
tml	-9626
need	-9627
delay	-9628
▁Nothing	-9629
▁getWindow	-9630
BAD	-9631
Err	-9632
▁hub	-9633
NIGHT	-9634
▁hour	-9635
PERIOD	-9636
▁mGroup	-9637
ViewState	-9638
invocation	-9639
setVisible	-9640
▁Transport	-9641
Uncertainty	-9642
Ss	-9643
BUB	-9644
▁VPN	-9645
BUBBLE	-9646
VERBOSE	-9647
Contrast	-9648
Estimate	-9649
▁disconnect	-9650
▁applicationInfo	-9651
NR	-9652
MUSIC	-9653
Place	-9654
Suite	-9655
TYPES	-9656
depend	-9657
Acquired	-9658
Explicit	-9659
MediaRoute	-9660
▁deprecated	-9661
▁transformation	-9662
mInfo	-9663
mInput	-9664
Mediator	-9665
Clickable	-9666
plashScreen	-9667
Authenticate	-9668
CornerRadius	-9669
Turn	-9670
Freeze	-9671
cheduling	-9672
▁organizer	-9673
▁something	-9674
ActivityStart	-9675
Awake	-9676
toInt	-9677
sensors	-9678
▁shadow	-9679
▁simple	-9680
▁MOCKAPP	-9681
DataSource	-9682
sbn	-9683
During	-9684
adjust	-9685
PRIVILEGED	-9686
ALT	-9687
prev	-9688
▁cutout	-9689
UniqueId	-9690
▁mVibrator	-9691
mD	-9692
names	-9693
Spinner	-9694
password	-9695
Triggered	-9696
StackTrace	-9697
isLoggable	-9698
▁verifyNoMore	-9699
IMP	-9700
ADDED	-9701
ALERT	-9702
Initi	-9703
ighest	-9704
convert	-9705
Handling	-9706
▁guaranteed	-9707
▁dumpSetting	-9708
▁asynchronous	-9709
▁"'	-9710
TimeUnit	-9711
Completion	-9712
Codes	-9713
Rects	-9714
▁MIME	-9715
Sampling	-9716
getEvent	-9717
resource	-9718
▁country	-9719
▁defining	-9720
▁userInfo	-9721
OutOfBounds	-9722
FM	-9723
SIN	-9724
}.</	-9725
▁CPU	-9726
▁dex	-9727
Boost	-9728
added	-9729
Spring	-9730
▁PFLAG	-9731
hemeral	-9732
▁Random	-9733
▁sorted	-9734
ike	-9735
inity	-9736
▁Notify	-9737
getFloat	-9738
▁Pending	-9739
biometric	-9740
▁Ravenwood	-9741
ServiceType	-9742
FUN	-9743
Known	-9744
▁scrim	-9745
▁mValue	-9746
▁NETWORK	-9747
▁runWith	-9748
DY	-9749
Uris	-9750
▁Sms	-9751
▁mPersist	-9752
▁describing	-9753
II	-9754
InWindow	-9755
getFlags	-9756
▁INTEGER	-9757
CB	-9758
EME	-9759
▁}).	-9760
quish	-9761
▁Operation	-9762
▁getString	-9763
My	-9764
rs	-9765
ses	-9766
Verbose	-9767
ActiveSource	-9768
GPS	-9769
[2]	-9770
Rates	-9771
ifiable	-9772
Collapsed	-9773
Unchecked	-9774
▁PowerStats	-9775
(1),	-9776
arcelling	-9777
Confidence	-9778
Successful	-9779
PermissionFlags	-9780
▁q	-9781
Dirs	-9782
PROC	-9783
SAFE	-9784
White	-9785
toList	-9786
▁thrott	-9787
Highlight	-9788
▁Background	-9789
▁zoom	-9790
Speech	-9791
▁flush	-9792
▁depending	-9793
▁Smartspace	-9794
ILL	-9795
NAP	-9796
ADJUST	-9797
Possible	-9798
RateLimit	-9799
▁ServiceInfo	-9800
▁serviceInfo	-9801
▁unavailable	-9802
ConnectionState	-9803
TAIN	-9804
▁mAllow	-9805
LowPower	-9806
setDuration	-9807
EntryBuilder	-9808
▁defStyleRes	-9809
peat	-9810
▁chunk	-9811
BOUNCER	-9812
▁mPaint	-9813
uplicate	-9814
▁JobInfo	-9815
Embedding	-9816
FormatException	-9817
wct	-9818
MINUTE	-9819
VENDOR	-9820
Validity	-9821
▁mGlobal	-9822
▁MediaRoute	-9823
ActivityOptions	-9824
vol	-9825
▁"</	-9826
cludes	-9827
Carousel	-9828
SystemUi	-9829
▁missing	-9830
Immutable	-9831
▁expansion	-9832
DeviceManager	-9833
▁mMagnification	-9834
NER	-9835
Maker	-9836
▁mBack	-9837
CLUSIVE	-9838
COMPLEX	-9839
▁merged	-9840
animator	-9841
OrDefault	-9842
▁KeyStore	-9843
▁rootTask	-9844
MonitorCallback	-9845
▁CHAN	-9846
▁First	-9847
▁injector	-9848
Calculator	-9849
▁destroyed	-9850
AutomaticZenRule	-9851
HDR	-9852
PIP	-9853
Tick	-9854
▁LOC	-9855
▁Debug	-9856
▁mComm	-9857
▁decode	-9858
Encoding	-9859
activate	-9860
keystore	-9861
▁payload	-9862
SoftInput	-9863
▁mListView	-9864
onNotification	-9865
▁pot	-9866
COMMAND	-9867
▁scaled	-9868
VERTICAL	-9869
▁Dynamic	-9870
▁Telecom	-9871
▁interactive	-9872
▁WeakReference	-9873
arceledListSlice	-9874
sequ	-9875
▁Wait	-9876
stateIn	-9877
▁testIs	-9878
▁Condition	-9879
▁returning	-9880
TIMES	-9881
Reveal	-9882
logical	-9883
▁listen	-9884
▁extract	-9885
▁strings	-9886
▁targeting	-9887
ProgramInfo	-9888
▁Constraint	-9889
KEYS	-9890
onNode	-9891
EventLog	-9892
onReceive	-9893
▁mTransaction	-9894
hasSystemFeature	-9895
SLO	-9896
moveTo	-9897
▁Entry	-9898
ANDROID	-9899
Browser	-9900
▁Enable	-9901
Movement	-9902
▁SomeArgs	-9903
▁IMPORTANCE	-9904
▁combination	-9905
TimeoutMillis	-9906
Sig	-9907
[],	-9908
▁${	-9909
▁Dec	-9910
Noted	-9911
search	-9912
▁mAction	-9913
fg	-9914
peg	-9915
()},	-9916
(1))	-9917
wrap	-9918
sysui	-9919
aveform	-9920
Accessory	-9921
AppHelper	-9922
▁typically	-9923
▁MediaPlayer	-9924
▁ContentCapture	-9925
▁secureSettings	-9926
DPAD	-9927
▁"");	-9928
▁apex	-9929
▁flowOf	-9930
ChangeId	-9931
Translate	-9932
▁Typeface	-9933
JobScheduler	-9934
PROVISIONING	-9935
▁So	-9936
▁Each	-9937
▁rank	-9938
DOUBLE	-9939
WARNING	-9940
▁Ambient	-9941
▁checking	-9942
XY	-9943
▁nested	-9944
▁ROTATION	-9945
▁endpoint	-9946
▁AudioTrack	-9947
increaseIndent	-9948
FUL	-9949
IAL	-9950
}")	-9951
LLED	-9952
allest	-9953
HEADSET	-9954
▁mTotal	-9955
▁publish	-9956
Throwable	-9957
AccessException	-9958
▁TR	-9959
Props	-9960
▁didn	-9961
DOMAIN	-9962
Implicit	-9963
Lifetime	-9964
Restrict	-9965
RULE	-9966
▁Java	-9967
▁fetch	-9968
aversal	-9969
▁respect	-9970
▁procState	-9971
DisplayCutout	-9972
uzz	-9973
▁tw	-9974
REGION	-9975
▁1000,	-9976
▁Hardware	-9977
ByteBuffer	-9978
▁DisplayArea	-9979
LayoutDirection	-9980
Gain	-9981
▁Find	-9982
▁fall	-9983
DoesNot	-9984
ormally	-9985
▁moving	-9986
▁co	-9987
WARD	-9988
pause	-9989
watch	-9990
▁Alarm	-9991
ALGORITHM	-9992
TileModel	-9993
Conference	-9994
▁provisioning	-9995
_5	-9996
Sets	-9997
delta	-9998
ecret	-9999
▁maint	-10000
▁sizes	-10001
MenuView	-10002
packages	-10003
constraint	-10004
ellChecker	-10005
▁instanceId	-10006
SensorPrivacy	-10007
Web	-10008
▁ut	-10009
▁mIme	-10010
▁mShow	-10011
▁Command	-10012
FromString	-10013
LeBroadcast	-10014
usic	-10015
BluetoothProfile	-10016
bt	-10017
HAVI	-10018
NOTE	-10019
Graph	-10020
Optim	-10021
WAKEUP	-10022
ocated	-10023
mBubble	-10024
▁MESSAGE	-10025
▁mRunning	-10026
▁overrides	-10027
Unavailable	-10028
credentials	-10029
readBoolean	-10030
ServiceThread	-10031
456	-10032
INDIC	-10033
▁Fill	-10034
▁Then	-10035
▁mBuilder	-10036
PROJECTION	-10037
Initializer	-10038
▁constraints	-10039
UJ	-10040
1.0	-10041
LTE	-10042
doze	-10043
NAMIC	-10044
HAVIOR	-10045
▁angle	-10046
mTarget	-10047
specified	-10048
▁execution	-10049
▁OVER	-10050
▁very	-10051
COMMUN	-10052
SHARED	-10053
normal	-10054
Resolve	-10055
erminate	-10056
lockscreen	-10057
SystemAudio	-10058
▁nowElapsed	-10059
scan	-10060
theme	-10061
▁NOTE	-10062
ORIZON	-10063
▁Track	-10064
▁deleg	-10065
Filters	-10066
Networks	-10067
Observers	-10068
▁occurred	-10069
Authenticators	-10070
ATT	-10071
▁opts	-10072
decode	-10073
Execute	-10074
UidState	-10075
ugmented	-10076
UnderTest	-10077
▁activated	-10078
▁dumpManager	-10079
ops	-10080
ITOR	-10081
Sens	-10082
ALIAS	-10083
▁ADDR	-10084
▁upper	-10085
OrThrow	-10086
className	-10087
countDown	-10088
itigation	-10089
▁performance	-10090
VirtualDisplay	-10091
VERS	-10092
_2);	-10093
drop	-10094
Drain	-10095
FIXED	-10096
arios	-10097
enarios	-10098
telecom	-10099
▁records	-10100
▁listening	-10101
▁mDrawable	-10102
][	-10103
Den	-10104
ASPECT	-10105
Linear	-10106
Silent	-10107
▁inflate	-10108
exception	-10109
▁freeform	-10110
INITIALIZED	-10111
▁AutofillId	-10112
.")	-10113
CAN	-10114
TUN	-10115
IMAGE	-10116
ISTORY	-10117
nprivate	-10118
▁isValid	-10119
mInternal	-10120
▁DevicePolicy	-10121
SessionCallback	-10122
(10,	-10123
▁sender	-10124
▁Controls	-10125
▁recommended	-10126
2).	-10127
VPN	-10128
rok	-10129
LEGACY	-10130
Resumed	-10131
▁linear	-10132
WorkSource	-10133
▁mResources	-10134
Loop	-10135
[][]	-10136
▁wrapped	-10137
AttachInfo	-10138
mTransport	-10139
Combination	-10140
getMainLooper	-10141
sort	-10142
▁GONE	-10143
▁logs	-10144
▁snap	-10145
▁marked	-10146
onotonic	-10147
▁regular	-10148
▁mInitial	-10149
runCurrent	-10150
▁receivers	-10151
dc	-10152
mn	-10153
hoto	-10154
ducer	-10155
▁200,	-10156
decrease	-10157
expanded	-10158
Switching	-10159
▁mStorage	-10160
▁dimensions	-10161
▁mBinderService	-10162
▁Ag	-10163
▁HD	-10164
ARGE	-10165
Labels	-10166
Posted	-10167
▁INSTA	-10168
▁picture	-10169
▁streams	-10170
Validations	-10171
getChildCount	-10172
mIn	-10173
Iter	-10174
iary	-10175
ALIGN	-10176
CORRE	-10177
RectF	-10178
▁mSync	-10179
Encoded	-10180
iolation	-10181
BT	-10182
Then	-10183
▁IDs	-10184
ripple	-10185
▁mFocus	-10186
▁RemoteCallback	-10187
OS	-10188
▁tv	-10189
PANEL	-10190
▁aidl	-10191
▁batch	-10192
▁choose	-10193
ORIZONTAL	-10194
Primitive	-10195
▁getClass	-10196
setPackage	-10197
▁nativeGet	-10198
med	-10199
▁api	-10200
▁exclude	-10201
OneHanded	-10202
timestamp	-10203
▁template	-10204
▁mPosition	-10205
writeBoolean	-10206
2:	-10207
Kind	-10208
UserIds	-10209
emoMode	-10210
▁Running	-10211
GameSession	-10212
transaction	-10213
▁recognition	-10214
▁-3	-10215
EXEC	-10216
HOUR	-10217
TAMP	-10218
▁COMP	-10219
Grants	-10220
ulsing	-10221
PARATOR	-10222
▁replaced	-10223
SCREENSHOT	-10224
Interceptor	-10225
ARK	-10226
Ike	-10227
See	-10228
STRO	-10229
Guest	-10230
▁Lazy	-10231
LOCALE	-10232
esting	-10233
portun	-10234
unlock	-10235
Clients	-10236
isDevice	-10237
▁mIntent	-10238
▁various	-10239
smartspace	-10240
ColorFilter	-10241
sa	-10242
▁br	-10243
[1]);	-10244
Outline	-10245
▁Complet	-10246
Suspended	-10247
processName	-10248
▁ColorSpace	-10249
▁instrumentation	-10250
flat	-10251
prompt	-10252
▁Double	-10253
▁rather	-10254
ToRemove	-10255
DateFormat	-10256
▁ImageView	-10257
▁ViewHolder	-10258
▁uiEventLogger	-10259
▁mConfiguration	-10260
getOpPackageName	-10261
vc	-10262
▁Represent	-10263
▁conference	-10264
StreamVolume	-10265
IZE	-10266
_1_	-10267
was	-10268
Modem	-10269
mWifi	-10270
Appear	-10271
Scaled	-10272
failed	-10273
▁mHost	-10274
▁socket	-10275
Criteria	-10276
ShortString	-10277
▁activityInfo	-10278
.,	-10279
CN	-10280
Expl	-10281
iness	-10282
▁tree	-10283
erD	-10284
▁Mtp	-10285
ATORS	-10286
GRANT	-10287
modes	-10288
▁kill	-10289
▁runs	-10290
getIcon	-10291
▁Override	-10292
▁dismissed	-10293
InsetsState	-10294
TimeElapsed	-10295
▁Wi	-10296
trim	-10297
ESTED	-10298
yphen	-10299
looper	-10300
INACTIVE	-10301
▁rounded	-10302
SigningDetails	-10303
EK	-10304
2));	-10305
▁Max	-10306
▁mAm	-10307
Flash	-10308
LAYER	-10309
BLOCKED	-10310
Telecom	-10311
▁slider	-10312
mProcLock	-10313
ationState	-10314
▁newConfig	-10315
▁translate	-10316
Constructor	-10317
▁suggestions	-10318
▁0))	-10319
▁ask	-10320
PARAM	-10321
AGMENT	-10322
always	-10323
started	-10324
▁Interrupted	-10325
Interpolators	-10326
(2)	-10327
▁"$	-10328
ably	-10329
thread	-10330
▁movement	-10331
▁ImageFormat	-10332
getLayoutParams	-10333
overableKeyStore	-10334
IDL	-10335
Kill	-10336
before	-10337
formed	-10338
import	-10339
Finishing	-10340
▁mDelegate	-10341
▁BluetoothDevice	-10342
-1	-10343
zone	-10344
▁Vpn	-10345
PROTO	-10346
urther	-10347
▁retry	-10348
▁NUM	-10349
▁Move	-10350
▁Slice	-10351
▁allocation	-10352
LES	-10353
AXIS	-10354
▁good	-10355
getMin	-10356
loaded	-10357
aseline	-10358
▁Determ	-10359
▁getKey	-10360
▁likely	-10361
StatusCallback	-10362
▁PH	-10363
▁adj	-10364
▁impl	-10365
▁generic	-10366
▁latency	-10367
FrameLayout	-10368
▁mNativeWrapper	-10369
uit	-10370
▁"]	-10371
▁sl	-10372
▁eventType	-10373
Java	-10374
▁Now	-10375
▁Root	-10376
Invisible	-10377
getProfile	-10378
▁thumbnail	-10379
▁mBluetooth	-10380
MediaManager	-10381
UserRestriction	-10382
▁ServiceManager	-10383
aim	-10384
(0.5	-10385
FADE	-10386
AMETER	-10387
Digests	-10388
addFlags	-10389
mSettings	-10390
WorkProfile	-10391
getAbsolute	-10392
DISCONNECTED	-10393
▁runWithCaller	-10394
Di	-10395
3",	-10396
vik	-10397
cled	-10398
PATTERN	-10399
▁COLUMN	-10400
Eligible	-10401
PROTECTION	-10402
EnabledSetting	-10403
decreaseIndent	-10404
mNativeWrapper	-10405
▁displayContent	-10406
▁GR	-10407
Defs	-10408
▁LAY	-10409
WakeUp	-10410
docRoot	-10411
▁parsing	-10412
StartInfo	-10413
BackupAgent	-10414
▁regardless	-10415
Dependencies	-10416
="{@	-10417
▁got	-10418
▁USAGE	-10419
▁mDoze	-10420
Inflate	-10421
COMPLETED	-10422
▁channels	-10423
Signatures	-10424
alvik	-10425
igits	-10426
spect	-10427
Ripple	-10428
ecause	-10429
erDuff	-10430
Buttons	-10431
▁become	-10432
AuthToken	-10433
MITIVE	-10434
▁Linked	-10435
▁rendering	-10436
▁Conversation	-10437
removeCallbacks	-10438
OUS	-10439
Rob	-10440
aid	-10441
▁ic	-10442
▁wm	-10443
▁VISI	-10444
FRAGMENT	-10445
Conditions	-10446
▁errorCode	-10447
▁unsupported	-10448
ScreenCapture	-10449
▁packageState	-10450
Co	-10451
ACQU	-10452
▁dark	-10453
CONTACT	-10454
Cluster	-10455
▁Energy	-10456
▁plugin	-10457
VIBRATION	-10458
▁removing	-10459
▁ArrayUtils	-10460
▁ImeTracker	-10461
apex	-10462
inge	-10463
some	-10464
▁CUJ	-10465
SHOWN	-10466
ishes	-10467
▁Code	-10468
matcher	-10469
StreamType	-10470
▁testUpdate	-10471
▁ZenModeConfig	-10472
▁nr	-10473
CALLER	-10474
ampler	-10475
▁mTile	-10476
distinct	-10477
▁removal	-10478
▁resultCode	-10479
arn	-10480
▁\"	-10481
PLUG	-10482
▁Name	-10483
▁attr	-10484
▁remain	-10485
▁Addition	-10486
▁Retrieve	-10487
▁overflow	-10488
▁Lockscreen	-10489
▁interactor	-10490
▁onAnimationEnd	-10491
Me	-10492
;">	-10493
DYNAMIC	-10494
doReturn	-10495
external	-10496
Conversion	-10497
KeyGesture	-10498
▁temporary	-10499
FrequencyHz	-10500
StatusBarState	-10501
echn	-10502
setMax	-10503
SeekBar	-10504
WindowId	-10505
Launching	-10506
▁initialization	-10507
perm	-10508
▁mWm	-10509
encod	-10510
▁Draw	-10511
▁Model	-10512
▁glGet	-10513
BEHAVIOR	-10514
▁clicked	-10515
▁partition	-10516
▁persisted	-10517
▁retrieved	-10518
▁statement	-10519
▁KeyGestureEvent	-10520
3_	-10521
BED	-10522
BOO	-10523
emant	-10524
▁much	-10525
▁smart	-10526
IZATION	-10527
▁Always	-10528
▁isUser	-10529
▁mEntry	-10530
▁mPhone	-10531
entrySet	-10532
mNetwork	-10533
resolver	-10534
▁combine	-10535
▁Specifies	-10536
▁JobScheduler	-10537
▁mTestableLooper	-10538
cum	-10539
Body	-10540
desc	-10541
Ports	-10542
MULTIP	-10543
argument	-10544
▁threads	-10545
▁ContentValues	-10546
ListenerService	-10547
omet	-10548
▁mTag	-10549
PRESSED	-10550
ixEpoch	-10551
pkgName	-10552
toMillis	-10553
▁buffers	-10554
UntilChanged	-10555
▁deviceEntry	-10556
come	-10557
same	-10558
▁May	-10559
▁Handle	-10560
▁middle	-10561
PackageInstaller	-10562
CRY	-10563
▁"[	-10564
Detect	-10565
▁Empty	-10566
fillMax	-10567
▁mTitle	-10568
Refactor	-10569
▁SERVICE	-10570
vibration	-10571
isKeyguard	-10572
▁debugging	-10573
Var	-10574
▁500	-10575
▁score	-10576
running	-10577
▁strong	-10578
▁mCaller	-10579
▁Standard	-10580
▁embedded	-10581
LegacyMode	-10582
Overscroll	-10583
FlickerTest	-10584
▁individual	-10585
({"	-10586
unfold	-10587
Acceler	-10588
SERVICES	-10589
RequestId	-10590
▁rootView	-10591
PictureInPicture	-10592
getLine	-10593
RebootEscrow	-10594
--;	-10595
SUS	-10596
mTmp	-10597
atory	-10598
Zygote	-10599
gether	-10600
▁locales	-10601
Addresses	-10602
Retriever	-10603
IDENTIFIER	-10604
ListenerAdapter	-10605
SceneTransition	-10606
▁(0	-10607
(1));	-10608
APSED	-10609
Frozen	-10610
▁having	-10611
▁stylus	-10612
Filtered	-10613
Segments	-10614
venience	-10615
Generation	-10616
RepositoryImpl	-10617
")).	-10618
(100,	-10619
▁Apps	-10620
▁Skip	-10621
▁texture	-10622
Formatter	-10623
AndroidPackage	-10624
---	-10625
Sort	-10626
like	-10627
AndSet	-10628
Notifs	-10629
▁spans	-10630
Dragging	-10631
whenever	-10632
▁selector	-10633
Operations	-10634
SYS	-10635
(2)).	-10636
appId	-10637
▁past	-10638
mContent	-10639
▁Pointer	-10640
▁usually	-10641
Intensity	-10642
▁getDevice	-10643
▁composeTestRule	-10644
_90	-10645
more	-10646
ASURE	-10647
ATIONS	-10648
RESOLU	-10649
repeat	-10650
PREVIEW	-10651
▁Offset	-10652
▁opened	-10653
▁Instant	-10654
UNSUPPORTED	-10655
DisplayDevice	-10656
Word	-10657
ZING	-10658
lers	-10659
CLOCK	-10660
▁mFull	-10661
Regions	-10662
▁mScrim	-10663
▁cleanup	-10664
RESOLUTION	-10665
▁functions	-10666
▁SoundTrigger	-10667
▁Op	-10668
join	-10669
▁prob	-10670
Strict	-10671
Dataset	-10672
Signing	-10673
▁lookup	-10674
Attempts	-10675
ViewDebug	-10676
ComponentInfo	-10677
mCachedDevice	-10678
▁configurations	-10679
NI	-10680
80,	-10681
▁Os	-10682
Prom	-10683
QUICK	-10684
▁Range	-10685
▁steps	-10686
▁logged	-10687
services	-10688
arraycopy	-10689
requested	-10690
▁interpol	-10691
descriptor	-10692
▁mDisplayId	-10693
packageManager	-10694
▁transitionState	-10695
TX	-10696
uce	-10697
GRESS	-10698
▁Native	-10699
▁author	-10700
▁mCheck	-10701
Computer	-10702
▁uniform	-10703
translate	-10704
▁equivalent	-10705
InLegacyMode	-10706
mRS	-10707
emux	-10708
Dirty	-10709
OnDevice	-10710
andatory	-10711
Connector	-10712
PointerId	-10713
shouldShow	-10714
▁represented	-10715
TargetSdkVersion	-10716
urb	-10717
SPAN	-10718
▁fix	-10719
UNSET	-10720
MainSync	-10721
ContextHub	-10722
▁startActivity	-10723
RecordingSession	-10724
:0	-10725
CARD	-10726
phys	-10727
itter	-10728
HEADER	-10729
Styled	-10730
▁Light	-10731
▁getLast	-10732
▁scaling	-10733
Evaluator	-10734
singleton	-10735
aterialTheme	-10736
ForAccessibility	-10737
Muted	-10738
Machine	-10739
mLayout	-10740
▁mFrame	-10741
entially	-10742
▁getting	-10743
DF	-10744
▁mShade	-10745
▁ringer	-10746
▁DISABLE	-10747
▁degrees	-10748
LongArray	-10749
▁Rotation	-10750
toByteArray	-10751
TaskListener	-10752
▁NOTIFICATION	-10753
tps	-10754
Outer	-10755
▁ones	-10756
MUTABLE	-10757
▁Inline	-10758
Portrait	-10759
ingSessionInfo	-10760
mQuotaController	-10761
oded	-10762
ListOf	-10763
NATIVE	-10764
flatMap	-10765
▁AndroidFuture	-10766
(123	-10767
lder	-10768
Drawer	-10769
mAudio	-10770
uation	-10771
vation	-10772
privacy	-10773
▁intern	-10774
postDelayed	-10775
mi	-10776
rb	-10777
Tablet	-10778
aching	-10779
endTag	-10780
Indexed	-10781
InBackground	-10782
CompatChanges	-10783
sendBroadcast	-10784
▁getResources	-10785
▁adb	-10786
email	-10787
indent	-10788
Buffers	-10789
Implement	-10790
▁mOverlay	-10791
▁importance	-10792
▁vec	-10793
▁1));	-10794
▁GLint	-10795
▁POWER	-10796
Uniform	-10797
getAppId	-10798
▁vibrate	-10799
)",	-10800
Zoom	-10801
https	-10802
▁mDec	-10803
▁phase	-10804
FULNESS	-10805
▁posted	-10806
▁trying	-10807
PerfTest	-10808
setImage	-10809
▁signing	-10810
EGL	-10811
(0.0	-10812
Logs	-10813
peek	-10814
EXPAN	-10815
▁mCall	-10816
▁shows	-10817
operations	-10818
setComponent	-10819
▁SigningDetails	-10820
▁ProgramSelector	-10821
xFF	-10822
▁hasn	-10823
atitude	-10824
DataType	-10825
▁reasons	-10826
Inflation	-10827
LightSensor	-10828
';	-10829
insert	-10830
isRunning	-10831
▁inflater	-10832
▁isSystem	-10833
▁providing	-10834
▁createWindow	-10835
``	-10836
zer	-10837
Weak	-10838
mKey	-10839
▁AND	-10840
▁SIP	-10841
▁contr	-10842
TEXTURE	-10843
GameMode	-10844
Observable	-10845
modifiable	-10846
▁childCount	-10847
LTA	-10848
▁"%	-10849
▁dy	-10850
ITEM	-10851
Most	-10852
▁12;	-10853
earby	-10854
uches	-10855
Wearable	-10856
▁enqueue	-10857
▁ranking	-10858
▁Frontend	-10859
Biometrics	-10860
FullBackup	-10861
▁LocaleList	-10862
CarrierConfig	-10863
▁Connectivity	-10864
InteractiveApp	-10865
idle	-10866
Paused	-10867
Desired	-10868
LockTask	-10869
BlendMode	-10870
SyncGroup	-10871
ableFuture	-10872
mStatusBar	-10873
▁Transaction	-10874
getUserHandle	-10875
▁APN	-10876
EFFECTS	-10877
Ordered	-10878
setFlags	-10879
duHeaders	-10880
▁Authentic	-10881
StringBuilder	-10882
mTag	-10883
▁lux	-10884
▁callF	-10885
startTag	-10886
requencies	-10887
Attestation	-10888
▁Constructs	-10889
▁targetUserId	-10890
POL	-10891
Live	-10892
▁push	-10893
iterator	-10894
Processing	-10895
▁bugreport	-10896
▁assertNotEquals	-10897
ERO	-10898
cec	-10899
eak	-10900
ROTT	-10901
Pulse	-10902
anyOf	-10903
▁simp	-10904
selection	-10905
ContactsContract	-10906
DOCK	-10907
wall	-10908
scope	-10909
tuner	-10910
agnost	-10911
▁Modem	-10912
▁assigned	-10913
RemoteCallback	-10914
▁TransitionStep	-10915
Was	-10916
▁os	-10917
cise	-10918
Ended	-10919
ambient	-10920
FINISHED	-10921
▁further	-10922
▁durationMs	-10923
ROW	-10924
SIL	-10925
anner	-10926
▁Once	-10927
▁PRIVATE	-10928
▁trusted	-10929
installer	-10930
▁IntArray	-10931
mTransition	-10932
RecyclerView	-10933
▁9;	-10934
▁Ge	-10935
CELL	-10936
ORDER	-10937
Ranges	-10938
anBand	-10939
▁paths	-10940
Closing	-10941
Sources	-10942
▁behind	-10943
response	-10944
▁rotated	-10945
DoubleTap	-10946
▁manually	-10947
RavenwoodKeep	-10948
authentication	-10949
win	-10950
Heap	-10951
▁fit	-10952
FINISH	-10953
bubbles	-10954
▁Vector	-10955
mConstants	-10956
▁displayInfo	-10957
▁resolvedType	-10958
.)	-10959
CERT	-10960
▁Single	-10961
▁declared	-10962
▁mLog	-10963
▁slice	-10964
Touchpad	-10965
▁switching	-10966
▁setContentView	-10967
ae	-10968
pp	-10969
▁New	-10970
PHASE	-10971
setup	-10972
▁2007	-10973
Consum	-10974
▁ALLOW	-10975
▁alert	-10976
▁VERSION	-10977
bolectric	-10978
ViewBinder	-10979
identifier	-10980
HealthCheck	-10981
▁parcelable	-10982
Void	-10983
frames	-10984
modules	-10985
▁routes	-10986
TIMESTAMP	-10987
▁mEnabled	-10988
▁mVirtual	-10989
anceableHub	-10990
▁connections	-10991
▁measurement	-10992
arsingPackage	-10993
SUM	-10994
pack	-10995
AMING	-10996
IsNot	-10997
▁Async	-10998
▁holds	-10999
keyCode	-11000
Charsets	-11001
Ignoring	-11002
ColorSpace	-11003
▁Constructor	-11004
MediaController	-11005
->	-11006
cest	-11007
usted	-11008
FACTOR	-11009
▁front	-11010
Protocol	-11011
TileSpec	-11012
IsVisible	-11013
▁simulate	-11014
▁Represents	-11015
entralSurfaces	-11016
getClassLoader	-11017
▁resultReceiver	-11018
AW	-11019
KM	-11020
REPE	-11021
▁FGS	-11022
▁upon	-11023
vendor	-11024
Touchable	-11025
▁PRIORITY	-11026
TRANSLATION	-11027
RS	-11028
nb	-11029
fcn	-11030
alarm	-11031
SQLite	-11032
ffffffff	-11033
runnable	-11034
▁fileName	-11035
RingerMode	-11036
▁ZenPolicy	-11037
Fg	-11038
LING	-11039
MORE	-11040
MUTE	-11041
mDefault	-11042
versations	-11043
▁sInstance	-11044
Transparent	-11045
SUG	-11046
FONT	-11047
▁```	-11048
people	-11049
▁spyOn	-11050
▁isolated	-11051
HORIZONTAL	-11052
getOrCreate	-11053
▁Non	-11054
▁GNSS	-11055
▁Video	-11056
▁Disable	-11057
▁percent	-11058
ServiceState	-11059
CA	-11060
▁20;	-11061
Thumb	-11062
video	-11063
Roaming	-11064
mRemote	-11065
managed	-11066
▁Descri	-11067
Advanced	-11068
getHandler	-11069
ExternalStorage	-11070
ISTA	-11071
Ramp	-11072
comb	-11073
prop	-11074
▁Bit	-11075
Pager	-11076
river	-11077
orarily	-11078
oration	-11079
KeyValue	-11080
atializer	-11081
automatic	-11082
mResources	-11083
setDataPosition	-11084
▁*/)	-11085
▁Ike	-11086
limit	-11087
utral	-11088
▁doing	-11089
SPARENT	-11090
▁caption	-11091
▁mOutput	-11092
▁pressed	-11093
Expanding	-11094
robolectric	-11095
0);	-11096
AIN	-11097
MIME	-11098
SKIP	-11099
Chars	-11100
▁upgrade	-11101
AnyThread	-11102
REQUESTED	-11103
Broadcasts	-11104
▁Selection	-11105
LanguageTag	-11106
OEM	-11107
▁Match	-11108
▁infos	-11109
▁makes	-11110
parsing	-11111
▁mWallpaper	-11112
▁InsetsSource	-11113
ResultReceiver	-11114
LUS	-11115
▁Be	-11116
▁der	-11117
▁pull	-11118
signal	-11119
▁Alert	-11120
Playing	-11121
Replies	-11122
Tutorial	-11123
Optimizer	-11124
▁mAnimator	-11125
▁onService	-11126
MediaSession	-11127
▁wc	-11128
Mill	-11129
▁**/	-11130
pline	-11131
Subject	-11132
setIcon	-11133
▁bubbles	-11134
Functions	-11135
foreground	-11136
StatsLocked	-11137
rt	-11138
▁_,	-11139
EDED	-11140
ialer	-11141
osure	-11142
captor	-11143
SURFACE	-11144
section	-11145
INTERFACE	-11146
▁combined	-11147
▁contained	-11148
▁argumentCaptor	-11149
dl	-11150
▁3)	-11151
LINK	-11152
exec	-11153
SMART	-11154
EVENTS	-11155
onEach	-11156
▁GROUP	-11157
▁headsUp	-11158
▁numbers	-11159
Interrupt	-11160
LeastOnce	-11161
createWith	-11162
DisplayName	-11163
che	-11164
▁mY	-11165
Repl	-11166
▁RIL	-11167
▁ctx	-11168
atial	-11169
▁pool	-11170
▁Table	-11171
mCached	-11172
▁Assist	-11173
▁Kernel	-11174
▁getApp	-11175
▁sensors	-11176
TransitionTo	-11177
▁advanceTime	-11178
getAbsolutePath	-11179
gate	-11180
▁CDMA	-11181
▁Port	-11182
Opened	-11183
▁lines	-11184
AppWindow	-11185
▁seq	-11186
▁LAYOUT	-11187
▁Record	-11188
CHARGING	-11189
TintList	-11190
wmHelper	-11191
ANT	-11192
onal	-11193
super	-11194
OPTION	-11195
▁abort	-11196
Complex	-11197
▁propag	-11198
VALIDATOR	-11199
UserSwitcher	-11200
▁ContentObserver	-11201
mB	-11202
▁ri	-11203
BILE	-11204
HOLD	-11205
oter	-11206
Cycle	-11207
Pages	-11208
Opaque	-11209
THROTT	-11210
Succeed	-11211
ofFloat	-11212
▁mLocation	-11213
▁resulting	-11214
▁transient	-11215
ModeManager	-11216
▁corresponds	-11217
ng	-11218
reg	-11219
▁gone	-11220
Rounded	-11221
resolved	-11222
ItemCount	-11223
onAnimation	-11224
/>	-11225
bad	-11226
▁'"	-11227
▁Bl	-11228
LENS	-11229
Loss	-11230
▁sum	-11231
eeper	-11232
voice	-11233
Owners	-11234
THREAD	-11235
insets	-11236
Average	-11237
seconds	-11238
Magnifier	-11239
▁addition	-11240
▁segments	-11241
RP	-11242
Pop	-11243
GRAM	-11244
▁End	-11245
▁SHA	-11246
▁wants	-11247
LeAudio	-11248
RECENTS	-11249
mProcess	-11250
▁networks	-11251
▁populate	-11252
▁getChildAt	-11253
StartingWindow	-11254
▁-35,	-11255
▁micro	-11256
inOrder	-11257
▁mAppOps	-11258
LocaleList	-11259
PkgSetting	-11260
SensorEvent	-11261
TRANSITIONS	-11262
MediaDataLoaded	-11263
[4	-11264
DAB	-11265
Mtp	-11266
ism	-11267
orer	-11268
SECUR	-11269
▁blue	-11270
▁getS	-11271
Widgets	-11272
▁getUid	-11273
SECURITY	-11274
▁UNKNOWN	-11275
▁pipeline	-11276
▁Lifecycle	-11277
▁opaque	-11278
getUriFor	-11279
Dimensions	-11280
transitionState	-11281
ds	-11282
ASSI	-11283
▁give	-11284
Insert	-11285
CONNECT	-11286
hasNext	-11287
▁interm	-11288
existing	-11289
▁Watched	-11290
▁dimension	-11291
▁checkError	-11292
▁VibratorInfo	-11293
getCallingUserId	-11294
Caps	-11295
mPre	-11296
ACING	-11297
cached	-11298
FromXml	-11299
sequent	-11300
▁configs	-11301
mUserManager	-11302
TimingSession	-11303
▁taskFragment	-11304
SINCE	-11305
▁Valid	-11306
DataSet	-11307
physical	-11308
▁smaller	-11309
TimeNanos	-11310
▁entering	-11311
ept	-11312
▁"}	-11313
DELETE	-11314
▁recents	-11315
▁routing	-11316
PowerStatus	-11317
portunistic	-11318
▁createMock	-11319
▁EnergyConsumer	-11320
Pur	-11321
roker	-11322
letter	-11323
▁Signal	-11324
▁exceed	-11325
▁formats	-11326
▁similar	-11327
▁mActivityRule	-11328
6,	-11329
FOCU	-11330
edge	-11331
▁WOR	-11332
▁Pass	-11333
ArrayOf	-11334
FOCUSED	-11335
Headroom	-11336
Bandwidth	-11337
▁operator	-11338
▁fieldFlags	-11339
DisplayLayout	-11340
mN	-11341
AGENT	-11342
resId	-11343
getColumn	-11344
▁recorded	-11345
▁indicator	-11346
ProviderService	-11347
BluetoothManager	-11348
oud	-11349
irth	-11350
ITING	-11351
▁WORK	-11352
▁Pixel	-11353
Floating	-11354
▁Calling	-11355
▁transit	-11356
masterDefs	-11357
▁'\	-11358
most	-11359
pends	-11360
provid	-11361
PkgName	-11362
Notifier	-11363
Candidate	-11364
TouchMode	-11365
namespace	-11366
▁adjusted	-11367
dpm	-11368
lint	-11369
▁sig	-11370
▁ORIG	-11371
PARAMETER	-11372
ScanResult	-11373
getIntExtra	-11374
▁unexpected	-11375
▁Complication	-11376
Week	-11377
heet	-11378
mName	-11379
▁Down	-11380
▁subtitle	-11381
tree	-11382
▁16;	-11383
▁TABLE	-11384
Updater	-11385
▁Ignore	-11386
▁callId	-11387
ACTIVATE	-11388
▁SETTING	-11389
▁absolute	-11390
▁mProfile	-11391
nouncement	-11392
UserSetting	-11393
Choreographer	-11394
DUMP	-11395
▁11;	-11396
▁SUP	-11397
")));	-11398
CHILD	-11399
Timed	-11400
ogram	-11401
▁curr	-11402
Margins	-11403
EXCLUSIVE	-11404
mDisplayId	-11405
MultiWindow	-11406
cm	-11407
(":	-11408
(20	-11409
)?.	-11410
REN	-11411
SSID	-11412
▁2015	-11413
▁mClass	-11414
LogLevel	-11415
istogram	-11416
▁getView	-11417
▁mValues	-11418
▁Supplier	-11419
▁uidState	-11420
CaptureResult	-11421
▁intentFilter	-11422
/2	-11423
CAL	-11424
ACCE	-11425
Whole	-11426
merge	-11427
▁JSON	-11428
▁Quick	-11429
Buckets	-11430
caption	-11431
Requester	-11432
▁excluded	-11433
▁inactive	-11434
9,	-11435
bc	-11436
.()	-11437
_2_	-11438
echan	-11439
StateOf	-11440
getMode	-11441
▁captured	-11442
DeviceType	-11443
Invalidated	-11444
MediaPlayer	-11445
ActivityChip	-11446
DynamicShortcuts	-11447
lp	-11448
PIX	-11449
▁0).	-11450
▁usb	-11451
▁Voice	-11452
▁ORIGIN	-11453
▁better	-11454
▁Constant	-11455
▁userManager	-11456
LocalServices	-11457
getBrightness	-11458
▁Level	-11459
Indices	-11460
Journey	-11461
desired	-11462
▁Target	-11463
▁encode	-11464
Injected	-11465
▁Adapter	-11466
▁deferred	-11467
RenderNode	-11468
▁Environment	-11469
▁processName	-11470
onConfiguration	-11471
SLOT	-11472
▁mQs	-11473
ForAll	-11474
Consent	-11475
projection	-11476
DisplaySize	-11477
waitForIdle	-11478
DisplayState	-11479
4);	-11480
("",	-11481
game	-11482
Slots	-11483
ToInt	-11484
include	-11485
▁mDream	-11486
▁placed	-11487
Collapse	-11488
binations	-11489
viewModel	-11490
GetCredential	-11491
LET	-11492
PUB	-11493
aps	-11494
REAL	-11495
erver	-11496
▁GLES	-11497
▁MEDI	-11498
▁ends	-11499
Collectors	-11500
▁getActive	-11501
▁sDefaults	-11502
otification	-11503
FINE	-11504
zero	-11505
("");	-11506
LARGE	-11507
Meter	-11508
Patch	-11509
attrs	-11510
enger	-11511
▁Round	-11512
Balance	-11513
ributes	-11514
▁FORMAT	-11515
PRIMITIVE	-11516
authority	-11517
▁mPrimary	-11518
▁Transitions	-11519
▁systemClock	-11520
ParameterSpec	-11521
▁te	-11522
hema	-11523
idge	-11524
▁sever	-11525
irewall	-11526
tracing	-11527
▁detector	-11528
SurfaceView	-11529
removeMessages	-11530
IDI	-11531
▁cs	-11532
Earc	-11533
LIBR	-11534
role	-11535
▁big	-11536
▁taken	-11537
Compute	-11538
FUNCTION	-11539
Interact	-11540
Throttle	-11541
▁meaning	-11542
▁VALIDATORS	-11543
▁policyFlags	-11544
cr	-11545
who	-11546
roved	-11547
irthday	-11548
SEN	-11549
mPm	-11550
▁mute	-11551
ByUser	-11552
bounce	-11553
▁await	-11554
▁obtained	-11555
▁policies	-11556
▁challenge	-11557
▁converted	-11558
VERIFICATION	-11559
TW	-11560
(-1,	-11561
CONF	-11562
▁rhs	-11563
▁stub	-11564
amless	-11565
HISTORY	-11566
buggable	-11567
▁mBinder	-11568
▁mButton	-11569
PREFERENCE	-11570
▁finishCallback	-11571
IDS	-11572
date	-11573
▁{},	-11574
tures	-11575
ENSION	-11576
▁leave	-11577
FERENCE	-11578
▁Indent	-11579
▁MANAGE	-11580
getTotal	-11581
ynthetic	-11582
▁Factory	-11583
▁Timeout	-11584
▁ordered	-11585
▁partial	-11586
Blueprint	-11587
CallCount	-11588
▁portrait	-11589
BatteryLevel	-11590
▁3.	-11591
▁HE	-11592
▁CODE	-11593
▁Route	-11594
▁clazz	-11595
▁sticky	-11596
required	-11597
testKosmos	-11598
▁scheduler	-11599
▁getPackage	-11600
instrumentation	-11601
oses	-11602
▁sit	-11603
▁gain	-11604
Masked	-11605
▁codes	-11606
METERED	-11607
Traffic	-11608
Incoming	-11609
getStart	-11610
setValue	-11611
starting	-11612
▁buttons	-11613
isChangeEnabled	-11614
▁WAKE	-11615
▁seen	-11616
MOBILE	-11617
oUtils	-11618
headsUp	-11619
▁enroll	-11620
Boundary	-11621
cConstants	-11622
▁appearance	-11623
▁categories	-11624
▁pkgSetting	-11625
Customization	-11626
▁activityStarter	-11627
2"	-11628
OPS	-11629
▁UP	-11630
2");	-11631
uint	-11632
fixed	-11633
▁Core	-11634
region	-11635
PerUser	-11636
Tracked	-11637
unknown	-11638
▁Cancel	-11639
PROGRESS	-11640
Presence	-11641
Released	-11642
GridLayout	-11643
WalletCard	-11644
getServices	-11645
▁mComponent	-11646
Authorization	-11647
▁opPackageName	-11648
ActivityStarter	-11649
DisplayListener	-11650
DS	-11651
00)	-11652
stand	-11653
Lookup	-11654
▁parts	-11655
updated	-11656
▁making	-11657
▁owners	-11658
▁though	-11659
Discharge	-11660
ufficient	-11661
CaptureRequest	-11662
Wm	-11663
HER	-11664
retch	-11665
Between	-11666
▁Report	-11667
▁indent	-11668
Notified	-11669
▁Sharing	-11670
SmallIcon	-11671
authentic	-11672
ifference	-11673
▁commands	-11674
▁methodName	-11675
▁shouldShow	-11676
▁testKosmos	-11677
alt	-11678
▁).	-11679
▁EMP	-11680
RESOL	-11681
▁died	-11682
WindowToken	-11683
PermissionState	-11684
()];	-11685
IdTo	-11686
[2];	-11687
▁20,	-11688
▁Load	-11689
flated	-11690
Replace	-11691
oudness	-11692
▁chosen	-11693
▁getAll	-11694
Adjacent	-11695
rivateFlags	-11696
readParcelable	-11697
nc	-11698
LAT	-11699
web	-11700
▁Box	-11701
▁SIG	-11702
▁eas	-11703
mNext	-11704
▁conf	-11705
ToFront	-11706
▁Prompt	-11707
▁copied	-11708
JvmField	-11709
Restored	-11710
getEntry	-11711
mConnection	-11712
▁completion	-11713
Already	-11714
preview	-11715
AppState	-11716
▁isActive	-11717
▁suppress	-11718
▁monitoring	-11719
▁connectivity	-11720
▁abs	-11721
guide	-11722
mLocal	-11723
▁CLASS	-11724
setTask	-11725
▁Visual	-11726
▁packet	-11727
▁general	-11728
ATEGY	-11729
Certs	-11730
_000,	-11731
isNaN	-11732
▁mImage	-11733
ROLLBACK	-11734
Arguments	-11735
ExternalDisplay	-11736
▁CallerIdentity	-11737
/3	-11738
▁EN	-11739
leash	-11740
▁magn	-11741
olumes	-11742
Haptics	-11743
▁health	-11744
▁mBitmap	-11745
direction	-11746
▁highlight	-11747
DialogDelegate	-11748
Te	-11749
Anr	-11750
Aler	-11751
USED	-11752
verb	-11753
▁PIN	-11754
ipants	-11755
ASSISTA	-11756
ROUTING	-11757
mSystem	-11758
▁SESSION	-11759
▁delayed	-11760
▁dispatched	-11761
LogicalDisplay	-11762
checkPermission	-11763
▁SharingStarted	-11764
_*	-11765
Cam	-11766
xxxx	-11767
▁Cpu	-11768
▁mSm	-11769
mIcon	-11770
Folder	-11771
▁Codec	-11772
▁align	-11773
ELAPSED	-11774
▁mCount	-11775
▁turned	-11776
PortInfo	-11777
accounts	-11778
▁Injector	-11779
▁Launcher	-11780
TextClassifier	-11781
IMS	-11782
Seen	-11783
Mouse	-11784
INSETS	-11785
Logged	-11786
▁mFile	-11787
▁manual	-11788
▁Spanned	-11789
▁standby	-11790
▁Observable	-11791
ControllerImpl	-11792
▁callingUserId	-11793
▁ColorStateList	-11794
HOST	-11795
▁idx	-11796
allel	-11797
▁10);	-11798
Forced	-11799
▁Static	-11800
template	-11801
▁encoder	-11802
▁filters	-11803
DataStore	-11804
▁ENCODING	-11805
DESCRIPTION	-11806
TaskController	-11807
▁RemoteAnimation	-11808
XML	-11809
nel	-11810
AWARE	-11811
PATCH	-11812
TIBLE	-11813
resize	-11814
▁built	-11815
FromWindow	-11816
mCallbacks	-11817
files	-11818
uffix	-11819
▁tell	-11820
ardown	-11821
global	-11822
setName	-11823
AUTHENTIC	-11824
▁versions	-11825
▁jobStatus	-11826
{"	-11827
plug	-11828
▁Midi	-11829
Compact	-11830
Offload	-11831
Intrinsic	-11832
TranslationX	-11833
Sy	-11834
ENE	-11835
SEL	-11836
▁tri	-11837
evalu	-11838
▁Bind	-11839
▁SCAN	-11840
▁bool	-11841
▁soon	-11842
KeySet	-11843
PINNED	-11844
▁Buffered	-11845
▁AppCompat	-11846
ProgressBar	-11847
▁management	-11848
conversation	-11849
Parameterization	-11850
▁Vote	-11851
▁kind	-11852
Streams	-11853
▁Column	-11854
STARTING	-11855
CallState	-11856
▁normally	-11857
TestElements	-11858
StatusChanged	-11859
getPackageUid	-11860
writeParcelable	-11861
▁DisplayMetrics	-11862
two	-11863
▁goes	-11864
velope	-11865
▁modem	-11866
▁REQUEST	-11867
▁mAmbient	-11868
properties	-11869
CallbackCaptor	-11870
▁bt	-11871
Dist	-11872
take	-11873
Major	-11874
RINGER	-11875
Positive	-11876
DumpProto	-11877
TextColor	-11878
_{	-11879
ASC	-11880
ares	-11881
▁1),	-11882
▁Com	-11883
SETUP	-11884
ToLog	-11885
▁mUse	-11886
▁cycle	-11887
ScrollY	-11888
Resizing	-11889
Subtypes	-11890
JobLocked	-11891
Necessary	-11892
AnchorInfo	-11893
▁immutable	-11894
▁mInternal	-11895
InfoChanged	-11896
@~	-11897
MMS	-11898
▁PKG	-11899
eyond	-11900
mSync	-11901
▁STAR	-11902
▁atest	-11903
ToProto	-11904
▁Switch	-11905
▁mChild	-11906
▁simply	-11907
userInfo	-11908
ingService	-11909
▁AtomicFile	-11910
WeakReference	-11911
▁RadioManager	-11912
IntervalMillis	-11913
mWindowManager	-11914
▁mPipBoundsState	-11915
64.	-11916
Apn	-11917
iry	-11918
OnTop	-11919
vicest	-11920
ItemInfo	-11921
▁reports	-11922
ToDisplay	-11923
parameter	-11924
PackageNames	-11925
)(	-11926
Nits	-11927
▁2011	-11928
NoSuch	-11929
overed	-11930
LISTENER	-11931
▁Generic	-11932
▁NameNot	-11933
▁Restore	-11934
checkNotNull	-11935
getTargetContext	-11936
▁"-	-11937
quare	-11938
▁HAND	-11939
▁Need	-11940
Exempt	-11941
Getter	-11942
Handled	-11943
Maximum	-11944
ognizer	-11945
▁paused	-11946
▁recycle	-11947
▁respond	-11948
▁feedback	-11949
PermissionInfo	-11950
TL	-11951
bms	-11952
EXCE	-11953
emit	-11954
ITIES	-11955
async	-11956
ously	-11957
▁1024	-11958
Traced	-11959
edited	-11960
isSame	-11961
isCurrent	-11962
unflatten	-11963
▁landscape	-11964
GestureHandler	-11965
Lost	-11966
▁mAms	-11967
SIGNED	-11968
atural	-11969
family	-11970
▁mImpl	-11971
Persister	-11972
▁METADATA	-11973
mAppCompat	-11974
DC	-11975
ays	-11976
idx	-11977
▁1]	-11978
▁mU	-11979
areAll	-11980
copyOf	-11981
egrity	-11982
▁sanit	-11983
Prepare	-11984
▁reflect	-11985
getContent	-11986
▁Assertion	-11987
▁specifies	-11988
runOnMainSync	-11989
▁InputConnection	-11990
Win	-11991
oding	-11992
▁HDMI	-11993
▁mCan	-11994
▁defer	-11995
Reverse	-11996
TvInput	-11997
mPolicy	-11998
▁Hotword	-11999
▁determined	-12000
▁vpn	-12001
loads	-12002
▁COLOR	-12003
Ignored	-12004
▁Strict	-12005
▁mCarrier	-12006
mListeners	-12007
KeyListener	-12008
SceneInteractor	-12009
SQL	-12010
▁dp	-12011
SHARE	-12012
▁STAND	-12013
Opening	-12014
bitrary	-12015
combine	-12016
CameraId	-12017
getDepth	-12018
Containers	-12019
IfNecessary	-12020
▁Additional	-12021
Associations	-12022
KeyGestureEvent	-12023
▁sceneInteractor	-12024
Mult	-12025
▁far	-12026
▁mDe	-12027
▁mix	-12028
alias	-12029
▁AUTH	-12030
NOTIFY	-12031
▁Close	-12032
▁thumb	-12033
▁treat	-12034
BILITIES	-12035
ToSpeech	-12036
▁ExifTag	-12037
Rectangle	-12038
ingeAngle	-12039
unchecked	-12040
▁FileUtils	-12041
▁MediaSession	-12042
AlternateBouncer	-12043
RemoteViewsProto	-12044
PAD	-12045
FEED	-12046
mNum	-12047
▁grid	-12048
Retrie	-12049
▁whole	-12050
SUBTYPE	-12051
▁spring	-12052
Producer	-12053
ToBottom	-12054
▁mPolicy	-12055
coretests	-12056
increment	-12057
advanceTime	-12058
▁sessionInfo	-12059
ValueAnimator	-12060
LESS	-12061
have	-12062
PIXEL	-12063
UNDLE	-12064
logger	-12065
Decision	-12066
ABILITIES	-12067
▁mChannel	-12068
▁windowing	-12069
OsConstants	-12070
EventHandler	-12071
MutableStateFlow	-12072
cpu	-12073
▁pr	-12074
lyout	-12075
▁mAtm	-12076
Finder	-12077
PERSON	-12078
▁setOn	-12079
▁frozen	-12080
ViewInfo	-12081
▁INSTALL	-12082
AllowList	-12083
▁MenuItem	-12084
▁implicit	-12085
▁iterator	-12086
classifier	-12087
setDefault	-12088
▁privileges	-12089
▁QSTileState	-12090
DisplayRotation	-12091
,"	-12092
REPL	-12093
Slow	-12094
ving	-12095
▁PIP	-12096
Partial	-12097
ACQUIRED	-12098
OnDisplay	-12099
▁EventLog	-12100
▁mimeType	-12101
AudioFocus	-12102
▁ANIMATION	-12103
ixEpochTime	-12104
WhiteBalance	-12105
comeReceiver	-12106
▁ServiceState	-12107
UDE	-12108
Beep	-12109
▁why	-12110
Profiler	-12111
AppCompat	-12112
Documented	-12113
removeView	-12114
SessionInfo	-12115
Certificates	-12116
ValuesHolder	-12117
▁transformed	-12118
@~@~	-12119
cestor	-12120
updates	-12121
▁unbind	-12122
▁matcher	-12123
▁nullable	-12124
("%	-12125
Tri	-12126
Needs	-12127
getID	-12128
FORCED	-12129
ensure	-12130
stable	-12131
▁CONNE	-12132
▁EMPTY	-12133
▁shift	-12134
Exported	-12135
▁tracked	-12136
▁doNothing	-12137
▁suspended	-12138
Translucent	-12139
putParcelable	-12140
VoiceInteraction	-12141
TRAS	-12142
emon	-12143
▁TASK	-12144
getLock	-12145
SELECTED	-12146
Repeating	-12147
spectable	-12148
▁allowing	-12149
Prediction	-12150
▁mTelephony	-12151
CallerIdentity	-12152
sel	-12153
crop	-12154
etto	-12155
BIENT	-12156
ittle	-12157
small	-12158
▁mNew	-12159
Safety	-12160
▁belongs	-12161
▁mBottom	-12162
▁mShadow	-12163
▁minutes	-12164
▁reached	-12165
Scrolling	-12166
LoggingEnabled	-12167
▁createJobStatus	-12168
▁implementations	-12169
UMP	-12170
CLIP	-12171
ITED	-12172
home	-12173
empted	-12174
▁clamp	-12175
▁green	-12176
witches	-12177
threshold	-12178
▁getValue	-12179
▁receives	-12180
▁mBatteryStats	-12181
2(	-12182
ca	-12183
js	-12184
avy	-12185
PROP	-12186
▁sdk	-12187
Curve	-12188
Variable	-12189
fficient	-12190
launchIn	-12191
▁requirements	-12192
▁TestableLooper	-12193
KB	-12194
▁AOD	-12195
LEASE	-12196
Retry	-12197
▁Save	-12198
▁early	-12199
▁GLuint	-12200
sensorId	-12201
onDisplay	-12202
▁recovery	-12203
▁internally	-12204
▁getOrCreate	-12205
▁requestCode	-12206
▁createService	-12207
sw	-12208
Bec	-12209
icle	-12210
▁15;	-12211
0000;	-12212
SPEAK	-12213
Phrase	-12214
ilight	-12215
posure	-12216
negative	-12217
▁testApp	-12218
INSTALLED	-12219
TestDispatcher	-12220
sk	-12221
RTL	-12222
▁Pin	-12223
Below	-12224
▁thus	-12225
hysics	-12226
▁Truth	-12227
Vibrate	-12228
▁kernel	-12229
▁mCache	-12230
▁resumed	-12231
▁spacing	-12232
▁communic	-12233
▁uninstall	-12234
▁Screenshot	-12235
iss	-12236
wpc	-12237
▁At	-12238
CHEME	-12239
Prefs	-12240
MEDIUM	-12241
getRaw	-12242
▁exactly	-12243
Estimated	-12244
▁acquired	-12245
▁cameraId	-12246
isInstance	-12247
▁everything	-12248
BackAnimation	-12249
Sep	-12250
▁fg	-12251
Half	-12252
chip	-12253
FLASH	-12254
withId	-12255
▁works	-12256
INSTANT	-12257
▁alarms	-12258
▁images	-12259
activated	-12260
VpnProfile	-12261
▁FakeExecutor	-12262
zed	-12263
JPEG	-12264
▁PAR	-12265
▁mgl	-12266
Queued	-12267
Payload	-12268
setTitle	-12269
▁Privacy	-12270
▁Password	-12271
▁mUiEventLogger	-12272
_0.	-12273
Apis	-12274
keys	-12275
▁mSt	-12276
RETRY	-12277
clocks	-12278
Accuracy	-12279
SUPPORTS	-12280
Scanning	-12281
▁forEach	-12282
▁mLaunch	-12283
▁capacity	-12284
CORRECTION	-12285
CAPABILITIES	-12286
▁UiEventLogger	-12287
df	-12288
APK	-12289
vnd	-12290
mCur	-12291
▁incre	-12292
metrics	-12293
CONTROLS	-12294
getField	-12295
strument	-12296
▁widgets	-12297
Aggregate	-12298
▁downTime	-12299
▁mFeature	-12300
indexOfKey	-12301
onActivity	-12302
deviceentry	-12303
▁SetFlagsRule	-12304
INE	-12305
VAN	-12306
SNAP	-12307
EXTENSION	-12308
Associated	-12309
Concurrent	-12310
positories	-12311
VolumeGroup	-12312
attribution	-12313
▁adjustment	-12314
TouchListener	-12315
▁ActivityStarter	-12316
sr	-12317
▁RS	-12318
▁Toast	-12319
▁setOf	-12320
▁three	-12321
Cleanup	-12322
Offsets	-12323
mParent	-12324
▁Starts	-12325
essenger	-12326
▁Storage	-12327
ffffffffL	-12328
▁getHeight	-12329
SecureSettings	-12330
▁dx	-12331
DETA	-12332
▁Imm	-12333
STACK	-12334
atomic	-12335
mitted	-12336
▁MEDIA	-12337
Hotspot	-12338
RESUMED	-12339
subtype	-12340
▁mapped	-12341
detector	-12342
withClean	-12343
TrustAgent	-12344
FreeformTask	-12345
XX	-12346
AES	-12347
RAM	-12348
llips	-12349
sLock	-12350
SELECT	-12351
Globals	-12352
edState	-12353
▁Resource	-12354
PERSISTENT	-12355
Subscriber	-12356
CallSession	-12357
Descriptors	-12358
▁suppressed	-12359
mAccessibility	-12360
▁permissionName	-12361
aler	-12362
blob	-12363
ToUser	-12364
remember	-12365
horizontal	-12366
▁collapsed	-12367
▁generation	-12368
▁mInterface	-12369
▁mStatsRule	-12370
▁DesktopMode	-12371
▁HandlerThread	-12372
▁documentation	-12373
▁BI	-12374
aked	-12375
mIme	-12376
Going	-12377
PAUSE	-12378
duced	-12379
ablish	-12380
strain	-12381
▁Annot	-12382
▁protocol	-12383
▁subtypes	-12384
RecognitionEvent	-12385
':	-12386
CENT	-12387
HALF	-12388
▁visit	-12389
mplates	-12390
▁Toggle	-12391
assertIs	-12392
ALLOWLIST	-12393
▁LogBuffer	-12394
StatusBarManager	-12395
DROP	-12396
Days	-12397
▁Timer	-12398
uitable	-12399
▁onStop	-12400
ImplBase	-12401
Instances	-12402
▁TileSpec	-12403
CUJ	-12404
▁ip	-12405
Nodes	-12406
mBase	-12407
CpuAbi	-12408
SUGGES	-12409
▁mPath	-12410
Reorder	-12411
FieldsSet	-12412
Queryable	-12413
Invalidate	-12414
urrounding	-12415
▁WorkSource	-12416
IntervalStats	-12417
▁assertShortcut	-12418
OM	-12419
ATING	-12420
LICIT	-12421
STROY	-12422
Fading	-12423
ulates	-12424
Formats	-12425
related	-12426
▁Bouncer	-12427
▁VISIBLE	-12428
mDrawable	-12429
▁onDisplay	-12430
ScrollCapture	-12431
TestingRunner	-12432
▁IntentSender	-12433
.0,	-12434
SIP	-12435
▁/>	-12436
ARGB	-12437
LIFE	-12438
▁"\"	-12439
Noise	-12440
▁Param	-12441
ROAMING	-12442
▁mParam	-12443
▁cluster	-12444
EventType	-12445
▁Coroutine	-12446
▁getPadding	-12447
AppOptimizer	-12448
TF	-12449
["	-12450
ba	-12451
NDER	-12452
band	-12453
onTask	-12454
tility	-12455
weight	-12456
▁Cache	-12457
▁refer	-12458
avorites	-12459
▁Character	-12460
Positioning	-12461
RequestInfo	-12462
▁specifying	-12463
RollbackInfo	-12464
onTouchEvent	-12465
assertNotNull	-12466
ssid	-12467
▁Will	-12468
▁OPSTR	-12469
▁mClip	-12470
UPDATED	-12471
focused	-12472
Abstract	-12473
EXPANDED	-12474
Versions	-12475
rootView	-12476
▁arrayOf	-12477
userState	-12478
▁affected	-12479
▁testRead	-12480
AirplaneMode	-12481
fakeKeyguard	-12482
ResourceParser	-12483
WindowDecoration	-12484
▁art	-12485
▁Keep	-12486
▁WIFI	-12487
▁kept	-12488
▁pause	-12489
▁rotate	-12490
▁unused	-12491
FEEDBACK	-12492
MetaData	-12493
▁RenderNode	-12494
▁overscroll	-12495
SerialNumber	-12496
▁coroutineScope	-12497
Drm	-12498
Too	-12499
Abort	-12500
Month	-12501
Contin	-12502
▁ClipData	-12503
ingManager	-12504
DebugConfig	-12505
inant	-12506
▁2008	-12507
▁aren	-12508
AtLeast	-12509
fraction	-12510
▁accessed	-12511
▁extended	-12512
Multiplier	-12513
▁disconnected	-12514
HardwareBuffer	-12515
removeCallback	-12516
▁mLauncherApps	-12517
Have	-12518
eeps	-12519
▁"")	-12520
WHILE	-12521
where	-12522
▁BAND	-12523
MODULE	-12524
WidthDp	-12525
mHolder	-12526
Clipping	-12527
▁Chooser	-12528
▁headers	-12529
▁mUpdate	-12530
Encryption	-12531
▁TimeUtils	-12532
setKeyguard	-12533
▁correction	-12534
▁statsToken	-12535
▁UserTracker	-12536
▁motionEvent	-12537
ConsumedPower	-12538
collectLastValue	-12539
.5	-12540
nr	-12541
Aud	-12542
ISO	-12543
▁RGB	-12544
Vsync	-12545
aption	-12546
toggle	-12547
ACTIONS	-12548
▁entity	-12549
STRATEGY	-12550
▁libcore	-12551
MobileData	-12552
UsbManager	-12553
▁getDisplay	-12554
▁signatures	-12555
SoundTrigger	-12556
StrongBiometric	-12557
KER	-12558
ADAP	-12559
(1000	-12560
abric	-12561
▁SHOW	-12562
CpuFreq	-12563
▁detach	-12564
▁getName	-12565
▁mShared	-12566
Partition	-12567
StringRes	-12568
▁mMetrics	-12569
instanceId	-12570
▁mPrevious	-12571
▁mShortcut	-12572
▁Certificate	-12573
▁deviceState	-12574
StackListener	-12575
setNotification	-12576
▁js	-12577
MODEL	-12578
▁PERS	-12579
▁Post	-12580
▁arch	-12581
Avatar	-12582
▁Asset	-12583
▁shape	-12584
AndWait	-12585
CHARGED	-12586
▁family	-12587
echanism	-12588
Spannable	-12589
testation	-12590
▁wakelock	-12591
Positioner	-12592
▁Retrieves	-12593
LargeScreen	-12594
▁getChildCount	-12595
▁mutableListOf	-12596
getComponentName	-12597
mWm	-12598
sem	-12599
THING	-12600
Binary	-12601
▁FLAGS	-12602
endants	-12603
▁mShell	-12604
▁things	-12605
mChildren	-12606
DeviceEffects	-12607
▁PlaybackState	-12608
▁FileInputStream	-12609
DL	-12610
1),	-12611
LPr	-12612
\\-	-12613
oic	-12614
SERT	-12615
conn	-12616
▁And	-12617
▁Bar	-12618
TFlow	-12619
proxy	-12620
▁repo	-12621
Periodic	-12622
errorCode	-12623
▁Framework	-12624
NetworkStats	-12625
▁StreamTemplate	-12626
▁TaskDisplayArea	-12627
EV	-12628
(5,	-12629
Wide	-12630
▁loc	-12631
CYCLE	-12632
ASSIST	-12633
PUBLIC	-12634
▁graph	-12635
pattern	-12636
▁mirror	-12637
Deadline	-12638
▁Starting	-12639
yphenation	-12640
ControlTarget	-12641
(8	-12642
APPEAR	-12643
DIGEST	-12644
igital	-12645
▁inform	-12646
▁retain	-12647
▁develop	-12648
▁mCustom	-12649
FeatureId	-12650
Modifiers	-12651
operation	-12652
▁Rollback	-12653
TimeReader	-12654
▁beginning	-12655
▁collected	-12656
▁effective	-12657
ListenerCaptor	-12658
▁functionality	-12659
▁handleMessage	-12660
▁mAudioManager	-12661
na	-12662
HOT	-12663
TOLER	-12664
Linked	-12665
shadow	-12666
Listing	-12667
Returns	-12668
reflect	-12669
▁SENSOR	-12670
ClipData	-12671
Enforced	-12672
FilesDir	-12673
▁consume	-12674
▁userIds	-12675
Traversal	-12676
andidates	-12677
mWallpaper	-12678
▁TestScope	-12679
▁validation	-12680
StandbyBucket	-12681
notifications	-12682
SettingsProvider	-12683
(50	-12684
AMS	-12685
▁TO	-12686
▁ok	-12687
▁0.1	-12688
▁Scan	-12689
option	-12690
▁Query	-12691
HANDLED	-12692
MAXIMUM	-12693
simulate	-12694
TRANSPARENT	-12695
UserTracker	-12696
Repositories	-12697
▁preferences	-12698
mActivityRecord	-12699
vcn	-12700
Filename	-12701
VIBRATOR	-12702
▁indices	-12703
▁roaming	-12704
▁reprocess	-12705
addNotification	-12706
▁Big	-12707
Party	-12708
mTime	-12709
▁seek	-12710
▁mLeft	-12711
instant	-12712
▁Iterator	-12713
▁Simulate	-12714
▁blocking	-12715
▁together	-12716
▁positions	-12717
MockContext	-12718
oredNetwork	-12719
InsetsSource	-12720
layoutParams	-12721
ChangeCallback	-12722
ConnectionStatus	-12723
Pw	-12724
SCENE	-12725
▁2006	-12726
▁invok	-12727
▁onBind	-12728
PROFILES	-12729
TOLERANCE	-12730
abricated	-12731
getThread	-12732
mBiometric	-12733
runOnUiThread	-12734
ColorStateList	-12735
▁MaterialTheme	-12736
mSurfaceControl	-12737
▁subscriptionId	-12738
▁Is	-12739
ORIG	-12740
Outside	-12741
textview	-12742
igibility	-12743
letterbox	-12744
▁createNew	-12745
HistoryItem	-12746
▁MediaCodec	-12747
Applications	-12748
▁Recognition	-12749
TRUE	-12750
▁","	-12751
▁net	-12752
GOING	-12753
panels	-12754
unique	-12755
▁tokens	-12756
▁consistent	-12757
AIR	-12758
▁sel	-12759
views	-12760
▁prim	-12761
▁AppOp	-12762
gravity	-12763
Enforcer	-12764
Operator	-12765
▁sources	-12766
UserSwitch	-12767
▁environment	-12768
sceneInteractor	-12769
▁ActivityBuilder	-12770
;\	-12771
▁STR	-12772
▁ele	-12773
TUNER	-12774
AtTime	-12775
averse	-12776
▁Views	-12777
▁finger	-12778
DETECTOR	-12779
Printers	-12780
filtered	-12781
▁mFilter	-12782
configure	-12783
▁rejected	-12784
SizeCompat	-12785
▁mOriginal	-12786
BreakConfig	-12787
▁EditorInfo	-12788
▁aggregated	-12789
▁MediaRouter	-12790
▁layoutParams	-12791
+1	-12792
?>	-12793
TAGE	-12794
tool	-12795
▁));	-12796
ToTop	-12797
REBOOT	-12798
▁Enfor	-12799
▁units	-12800
IntValue	-12801
Prepared	-12802
realtime	-12803
removeAll	-12804
▁surfaces	-12805
AppFunction	-12806
GroupSummary	-12807
SubscriptionInfo	-12808
esh	-12809
▁AR	-12810
Trim	-12811
▁Try	-12812
▁mVh	-12813
Fetch	-12814
BITMAP	-12815
▁100);	-12816
▁Child	-12817
serving	-12818
▁clocks	-12819
▁mRight	-12820
Affinity	-12821
readFloat	-12822
ternative	-12823
ProgramList	-12824
▁availability	-12825
PowerComponent	-12826
▁windowManager	-12827
len	-12828
Find	-12829
▁tun	-12830
HOVER	-12831
fLock	-12832
<>());	-12833
Lambda	-12834
TERBOX	-12835
getPkg	-12836
Applier	-12837
adapter	-12838
Declared	-12839
▁Picture	-12840
▁earlier	-12841
▁filename	-12842
asStateFlow	-12843
singletonList	-12844
Chips	-12845
SMALL	-12846
setUp	-12847
▁term	-12848
efined	-12849
▁Saved	-12850
MONITOR	-12851
devices	-12852
Adaptive	-12853
▁getType	-12854
▁Schedule	-12855
Animatable	-12856
Enrollment	-12857
▁onTransition	-12858
blem	-12859
Milli	-12860
ATURES	-12861
margin	-12862
elector	-12863
▁mTuner	-12864
Relayout	-12865
▁PRIMARY	-12866
AndAssert	-12867
▁SystemUI	-12868
Descendant	-12869
▁calculated	-12870
▁AtomicBoolean	-12871
▁AtomicInteger	-12872
▁AccountManager	-12873
dt	-12874
kit	-12875
ssue	-12876
▁mTv	-12877
iders	-12878
▁blur	-12879
SAMPLE	-12880
▁mDrag	-12881
DEVICES	-12882
▁predic	-12883
modifier	-12884
▁PROVIDER	-12885
StatsEvent	-12886
desktopmode	-12887
ChannelGroup	-12888
ShadeDisplay	-12889
flatMapLatest	-12890
▁userRepository	-12891
▁CH	-12892
(1.0	-12893
▁Rel	-12894
Accept	-12895
▁mFace	-12896
Domains	-12897
▁unfold	-12898
setLayer	-12899
▁INITIAL	-12900
▁treated	-12901
▁Emergency	-12902
Inspectable	-12903
restriction	-12904
Organization	-12905
CallbackRecord	-12906
mk	-12907
Sco	-12908
PLAN	-12909
page	-12910
Owned	-12911
TIFIC	-12912
setId	-12913
▁body	-12914
getItem	-12915
▁GLsize	-12916
▁viewId	-12917
mProfile	-12918
LongClick	-12919
Specified	-12920
getIntent	-12921
▁POSITION	-12922
▁overlays	-12923
▁CameraMetadata	-12924
TC	-12925
UNI	-12926
▁mX	-12927
▁Rece	-12928
▁mAll	-12929
▁uuid	-12930
BUNDLE	-12931
LINEAR	-12932
Holders	-12933
WINDOWS	-12934
▁dozing	-12935
interrup	-12936
remaining	-12937
REGISTERED	-12938
GestureData	-12939
▁SystemService	-12940
RequiresFeature	-12941
▁AudioDeviceInfo	-12942
TARY	-12943
TOOL	-12944
MATIC	-12945
▁fast	-12946
▁flash	-12947
▁white	-12948
ImfLock	-12949
NumberOf	-12950
▁Printer	-12951
▁mFinish	-12952
▁Progress	-12953
QcConstants	-12954
▁completely	-12955
getIntrinsic	-12956
▁currentScene	-12957
callingPackage	-12958
POS	-12959
▁-2	-12960
NEXT	-12961
Shot	-12962
amma	-12963
▁box	-12964
▁oom	-12965
GREEN	-12966
Moved	-12967
prise	-12968
states	-12969
▁toast	-12970
AsState	-12971
▁attemp	-12972
Checksum	-12973
TIFICATE	-12974
▁mExpect	-12975
deviceEntry	-12976
BrightColors	-12977
TimeInMillis	-12978
isInstanceOf	-12979
AlarmListener	-12980
registerCallback	-12981
4_	-12982
MY	-12983
▁WM	-12984
▁pa	-12985
MESS	-12986
half	-12987
▁Hub	-12988
GUAGE	-12989
JobId	-12990
▁From	-12991
loader	-12992
monitor	-12993
▁Script	-12994
▁footer	-12995
ReadOnly	-12996
alformed	-12997
▁callers	-12998
▁inserted	-12999
Additional	-13000
CONTROLLER	-13001
mNativePtr	-13002
▁Immutable	-13003
WAKEFULNESS	-13004
▁createTest	-13005
ableExecutor	-13006
connectivity	-13007
formatDuration	-13008
readTypedObject	-13009
▁HdmiDeviceInfo	-13010
Ant	-13011
high	-13012
▁IFD	-13013
aemon	-13014
▁trim	-13015
Blocks	-13016
CLUDED	-13017
iation	-13018
▁month	-13019
▁Flicker	-13020
▁onError	-13021
Unhandled	-13022
jobStatus	-13023
▁mGesture	-13024
▁mVisible	-13025
▁reparent	-13026
composable	-13027
▁undefined	-13028
▁ITelephony	-13029
▁performing	-13030
Intelligence	-13031
▁topActivity	-13032
atencyTracker	-13033
▁installation	-13034
DialogInterface	-13035
FileOutputStream	-13036
=0	-13037
▁0.2	-13038
icons	-13039
STYLUS	-13040
ignore	-13041
submit	-13042
AMBIENT	-13043
CERTAIN	-13044
CONVERS	-13045
olectric	-13046
rootTask	-13047
▁getText	-13048
Variation	-13049
▁computed	-13050
WholeClass	-13051
▁subsequent	-13052
cue	-13053
UNIT	-13054
bing	-13055
anche	-13056
enance	-13057
▁CONFI	-13058
Dialogs	-13059
MEASURE	-13060
▁signed	-13061
setActive	-13062
▁Resolver	-13063
▁emptyList	-13064
enableFlags	-13065
TextAppearance	-13066
alsingCollector	-13067
fv	-13068
TOO	-13069
Magn	-13070
jank	-13071
mMin	-13072
▁Zen	-13073
Links	-13074
▁Rlog	-13075
FIELDS	-13076
mAttrs	-13077
signed	-13078
▁asset	-13079
▁STREAM	-13080
Violation	-13081
Concurrency	-13082
ServiceImpl	-13083
▁references	-13084
▁DeviceEntry	-13085
▁IM	-13086
Redi	-13087
ense	-13088
quot	-13089
uxil	-13090
afely	-13091
pload	-13092
SCHEME	-13093
▁Inter	-13094
transit	-13095
Repeated	-13096
▁Handles	-13097
▁defines	-13098
FontFamily	-13099
▁mSupported	-13100
RoundedCorner	-13101
FingerprintAuth	-13102
setInterpolator	-13103
(4,	-13104
BUILD	-13105
▁Same	-13106
▁getId	-13107
▁issue	-13108
OPTIONS	-13109
UsbPort	-13110
getBase	-13111
▁assign	-13112
CriticalNative	-13113
▁Compatibility	-13114
****************	-13115
writeTypedObject	-13116
AAC	-13117
(3);	-13118
VARI	-13119
▁"/"	-13120
▁With	-13121
▁mBar	-13122
CLOSED	-13123
Hibern	-13124
NodeId	-13125
▁setIs	-13126
OBSERVER	-13127
KeepClear	-13128
Percentage	-13129
onNodeWith	-13130
▁finishing	-13131
flattenToString	-13132
BluetoothAdapter	-13133
0%	-13134
Flex	-13135
_0);	-13136
dele	-13137
idex	-13138
uman	-13139
▁3);	-13140
Never	-13141
▁Short	-13142
VIBRATE	-13143
▁slotId	-13144
▁GLsizei	-13145
▁passing	-13146
▁newValue	-13147
getPending	-13148
AttachState	-13149
▁protection	-13150
EmptyMessage	-13151
PrimaryBouncer	-13152
blue	-13153
ette	-13154
seen	-13155
▁Apk	-13156
▁AIDL	-13157
Setter	-13158
▁timed	-13159
dynamic	-13160
▁appOps	-13161
▁mScale	-13162
uxiliary	-13163
Committed	-13164
▁ringtone	-13165
DeviceIdle	-13166
▁RunningTaskInfo	-13167
("$	-13168
▁"{	-13169
Overr	-13170
anyLong	-13171
resence	-13172
wilight	-13173
▁freeze	-13174
▁ripple	-13175
uidStats	-13176
FOCUSABLE	-13177
reference	-13178
▁subscrib	-13179
assertNull	-13180
MediaRouter	-13181
RSA	-13182
Sel	-13183
ssi	-13184
bers	-13185
mEnd	-13186
▁Let	-13187
pixel	-13188
setAs	-13189
▁Over	-13190
▁live	-13191
setHas	-13192
Exclude	-13193
SUMMARY	-13194
helpers	-13195
hemeris	-13196
matical	-13197
npublic	-13198
▁codegen	-13199
▁complex	-13200
ByDisplay	-13201
registered	-13202
setDisplay	-13203
▁suggested	-13204
ChangeListeners	-13205
▁mSurfaceControl	-13206
▁READ	-13207
▁leaf	-13208
▁mSup	-13209
▁older	-13210
Buffered	-13211
▁variable	-13212
Reflection	-13213
writeFloat	-13214
▁assistant	-13215
▁recommend	-13216
Coordinates	-13217
WindowFocus	-13218
isNotEqualTo	-13219
▁windowToken	-13220
▁powerInteractor	-13221
DIG	-13222
USH	-13223
_",	-13224
BARS	-13225
MAPP	-13226
▁Mem	-13227
▁Soft	-13228
▁death	-13229
Upgrade	-13230
WAITING	-13231
etector	-13232
▁POLICY	-13233
▁Plugin	-13234
▁depends	-13235
▁getData	-13236
Unlocking	-13237
▁UsageStats	-13238
ActivityTask	-13239
▁RemoteInput	-13240
▁cachedDevice	-13241
Ifd	-13242
VELO	-13243
links	-13244
SCRIPT	-13245
SPEAKER	-13246
ificant	-13247
Generate	-13248
mHdmiCec	-13249
removeOn	-13250
▁highest	-13251
▁mVolume	-13252
mAnimation	-13253
▁Currently	-13254
▁alignment	-13255
AccessPoint	-13256
DrawableRes	-13257
SystemReady	-13258
▁InsetsState	-13259
MAIL	-13260
Fails	-13261
_8888	-13262
aille	-13263
mPower	-13264
DESTROY	-13265
aration	-13266
mediate	-13267
▁mIndex	-13268
▁queried	-13269
▁gestures	-13270
▁focusable	-13271
▁onPackage	-13272
AudioSharing	-13273
DismissAction	-13274
▁mFingerprint	-13275
SystemAudioMode	-13276
FinishedCallback	-13277
ros	-13278
▁!(	-13279
Held	-13280
____	-13281
AWAKE	-13282
▁hard	-13283
000000	-13284
PAUSED	-13285
serial	-13286
InRange	-13287
ognized	-13288
▁dalvik	-13289
UNLOCKED	-13290
getExtras	-13291
OnKeyguard	-13292
TestHelper	-13293
thenAnswer	-13294
▁mReceiver	-13295
▁initialValue	-13296
HeadsUpManager	-13297
▁authenticator	-13298
IFD	-13299
TEP	-13300
big	-13301
rel	-13302
Wire	-13303
▁esc	-13304
SPanel	-13305
YSICAL	-13306
changes	-13307
▁CAMERA	-13308
▁maxHeight	-13309
FileInputStream	-13310
PTH	-13311
VIS	-13312
tor	-13313
diff	-13314
sist	-13315
DELTA	-13316
▁Drop	-13317
METRIC	-13318
reboot	-13319
FORWARD	-13320
▁detail	-13321
▁setter	-13322
FileName	-13323
gorithms	-13324
▁Trigger	-13325
▁groupId	-13326
▁subject	-13327
getConfig	-13328
▁Function	-13329
▁described	-13330
▁intArrayOf	-13331
▁PackageImpl	-13332
BrightnessMode	-13333
▁windowingMode	-13334
ORE	-13335
iler	-13336
kBar	-13337
▁HDR	-13338
erate	-13339
▁200;	-13340
ORIGIN	-13341
Snooze	-13342
AndDrop	-13343
Classic	-13344
Headset	-13345
ULATION	-13346
Bounding	-13347
oicemail	-13348
setScale	-13349
▁mThread	-13350
▁getWidth	-13351
▁mPackages	-13352
▁atLeastOnce	-13353
_9	-13354
yy	-13355
sms	-13356
▁*=	-13357
OUNT	-13358
RELA	-13359
▁web	-13360
getNum	-13361
printf	-13362
▁Block	-13363
ByteOrder	-13364
▁CAPABILITY	-13365
▁ActivityTask	-13366
▁mUserTracker	-13367
CallingPackage	-13368
OutPrintWriter	-13369
▁ACCESSIBILITY	-13370
ViewModelFactory	-13371
sql	-13372
▁Edge	-13373
▁slow	-13374
ROPHONE	-13375
▁Please	-13376
▁taking	-13377
▁zygote	-13378
TimeoutMs	-13379
▁sampling	-13380
▁watchdog	-13381
▁Registers	-13382
▁encrypted	-13383
▁mPlayback	-13384
isConnected	-13385
▁translated	-13386
-8	-13387
[].	-13388
CONTAIN	-13389
▁mDebug	-13390
INSTANCE	-13391
IsEqualTo	-13392
Qualifier	-13393
RouteInfo	-13394
Assistants	-13395
▁accessory	-13396
▁mWakeLock	-13397
Transformed	-13398
TrustedTime	-13399
getClassName	-13400
▁convertView	-13401
▁MetricsLogger	-13402
BrightnessState	-13403
▁ActivityThread	-13404
StyledAttributes	-13405
LS	-13406
gb	-13407
Try	-13408
▁Bad	-13409
STATIC	-13410
hanced	-13411
ovable	-13412
▁router	-13413
Commands	-13414
IMMUTABLE	-13415
onDestroy	-13416
DisabledBy	-13417
queryIntent	-13418
▁PixelFormat	-13419
PackageMonitor	-13420
▁DisplayCutout	-13421
BRE	-13422
DEF	-13423
ITI	-13424
▁"(	-13425
▁1:	-13426
DELI	-13427
Supp	-13428
Year	-13429
mPip	-13430
ARIES	-13431
▁Main	-13432
answer	-13433
encode	-13434
IGNORED	-13435
Ringtone	-13436
erConfig	-13437
setStyle	-13438
▁TvInput	-13439
▁backing	-13440
▁External	-13441
▁applying	-13442
▁attempts	-13443
▁dragging	-13444
▁rendered	-13445
ScrollView	-13446
▁mAppCompat	-13447
StateProvider	-13448
ActivityThread	-13449
ProximitySensor	-13450
Must	-13451
TURN	-13452
▁div	-13453
▁pdu	-13454
45678	-13455
▁dock	-13456
Classes	-13457
rolling	-13458
setAuto	-13459
▁inters	-13460
arguments	-13461
▁collapse	-13462
▁delivery	-13463
▁makeShortcut	-13464
KEEP	-13465
UICC	-13466
alic	-13467
hint	-13468
▁hit	-13469
getEnd	-13470
ringer	-13471
TRANSIENT	-13472
▁uptimeMs	-13473
▁dependency	-13474
setSmallIcon	-13475
▁handwriting	-13476
HY	-13477
Art	-13478
amper	-13479
onito	-13480
DITION	-13481
onBind	-13482
▁bring	-13483
▁curve	-13484
OnStart	-13485
▁CONFIG	-13486
onitored	-13487
▁mockito	-13488
getNative	-13489
▁checkNot	-13490
▁generally	-13491
ModeRepository	-13492
DB	-13493
">{@	-13494
Sink	-13495
urbul	-13496
AndEnd	-13497
coordin	-13498
▁backed	-13499
▁counts	-13500
ListItem	-13501
▁reverse	-13502
isDefault	-13503
RenderList	-13504
TypedValue	-13505
▁amplitude	-13506
▁streaming	-13507
elocityTracker	-13508
4)	-13509
Cuj	-13510
ATTA	-13511
none	-13512
such	-13513
▁CUS	-13514
▁mRow	-13515
▁pick	-13516
EXTRAS	-13517
OPENED	-13518
▁CUSTOM	-13519
▁Zygote	-13520
▁mForce	-13521
▁Example	-13522
▁sensitive	-13523
▁streamType	-13524
CameraCompat	-13525
ElapsedClock	-13526
▁mAttachInfo	-13527
Eq	-13528
egl	-13529
hub	-13530
▁af	-13531
▁Aidl	-13532
▁Oper	-13533
▁ended	-13534
▁pairs	-13535
TestUtil	-13536
▁mEditor	-13537
Uninstall	-13538
▁isDevice	-13539
Dismissing	-13540
SdkSandbox	-13541
getLockObject	-13542
2),	-13543
dict	-13544
getP	-13545
mLog	-13546
▁ISO	-13547
WEIGHT	-13548
mSplit	-13549
IntoMap	-13550
agnostic	-13551
▁Section	-13552
Effective	-13553
▁anyFloat	-13554
▁boundary	-13555
isNotEmpty	-13556
CERTIFICATE	-13557
▁credentials	-13558
DisplayMetrics	-13559
HdmiDeviceInfo	-13560
▁di	-13561
▁Def	-13562
▁YUV	-13563
ENAME	-13564
▁100)	-13565
▁come	-13566
REPEAT	-13567
CONFIRM	-13568
FileNot	-13569
▁mQueue	-13570
▁ranges	-13571
satellite	-13572
setWindow	-13573
concurrency	-13574
getPackages	-13575
KeyException	-13576
Implementation	-13577
▁MediaRecorder	-13578
ugmentedAutofill	-13579
Hun	-13580
YUV	-13581
▁Cl	-13582
FAST	-13583
Maybe	-13584
▁Mark	-13585
ADDING	-13586
Checks	-13587
DelayMs	-13588
▁Builds	-13589
▁mVideo	-13590
▁centerY	-13591
permissions	-13592
px	-13593
FOL	-13594
AUSE	-13595
Else	-13596
LICE	-13597
SELF	-13598
▁FACE	-13599
▁prom	-13600
MANUAL	-13601
AppData	-13602
▁prefer	-13603
▁TIMEOUT	-13604
▁endTime	-13605
ActionBar	-13606
▁InputMethodInfo	-13607
aky	-13608
FALL	-13609
ming	-13610
ylist	-13611
▁comes	-13612
ionally	-13613
ounting	-13614
▁Shadow	-13615
▁extend	-13616
▁issues	-13617
▁mNotif	-13618
MimeType	-13619
multidex	-13620
onResult	-13621
▁Computer	-13622
▁mStarted	-13623
WhenLocked	-13624
▁reporting	-13625
▁slotIndex	-13626
TRANSACTION	-13627
association	-13628
getPriority	-13629
▁exceptions	-13630
>");	-13631
Flip	-13632
setTag	-13633
▁SHORT	-13634
LOGGING	-13635
PLUGGED	-13636
ecutive	-13637
mBuffer	-13638
▁played	-13639
Compound	-13640
intValue	-13641
mProvider	-13642
▁suitable	-13643
▁Alignment	-13644
▁Suggestion	-13645
06	-13646
▁300	-13647
▁[--	-13648
CRASH	-13649
Modify	-13650
▁mAuth	-13651
▁shelf	-13652
Instead	-13653
AUTHORITY	-13654
▁Letterbox	-13655
▁DeviceAdmin	-13656
▁Temperature	-13657
ThrottlingData	-13658
▁CaptureResult	-13659
ChangedCallback	-13660
▁AssertionError	-13661
>:	-13662
YES	-13663
ERATE	-13664
Bridge	-13665
onDrag	-13666
▁guest	-13667
Lineage	-13668
compile	-13669
▁mDecor	-13670
Stopping	-13671
echnology	-13672
▁WakeLock	-13673
▁director	-13674
▁mExpanded	-13675
▁LOCKSCREEN	-13676
▁dispatcher	-13677
currentThread	-13678
doesNotContain	-13679
vh	-13680
10.	-13681
Rcs	-13682
ITER	-13683
OING	-13684
OPLE	-13685
ught	-13686
Accum	-13687
COMPO	-13688
▁caps	-13689
helper	-13690
urable	-13691
Blocker	-13692
picture	-13693
▁Because	-13694
▁exposed	-13695
Migration	-13696
resizable	-13697
setCurrent	-13698
▁guarantee	-13699
setSelected	-13700
unmodifiable	-13701
▁Translation	-13702
FixedRotation	-13703
VisualEffects	-13704
ActivityLaunch	-13705
makeMeasureSpec	-13706
DetectionEnabled	-13707
co	-13708
tmp	-13709
eres	-13710
Separ	-13711
TIMER	-13712
agram	-13713
concat	-13714
mBounds	-13715
removeAt	-13716
▁PROFILE	-13717
▁testAdd	-13718
ChannelId	-13719
PerSecond	-13720
ToDesktop	-13721
compatible	-13722
▁formatted	-13723
getColumnIndex	-13724
multidexlegacy	-13725
▁rx	-13726
TECH	-13727
EMBED	-13728
onStop	-13729
▁Sound	-13730
Variant	-13731
eletion	-13732
▁decide	-13733
▁fillIn	-13734
REALTIME	-13735
▁matched	-13736
▁purpose	-13737
BUGREPORT	-13738
GoingAway	-13739
▁Metadata	-13740
▁recycler	-13741
ITelephony	-13742
getPadding	-13743
▁filtering	-13744
▁Interaction	-13745
ExifInterface	-13746
▁getPackageName	-13747
▁resolvedUserId	-13748
setWindowingMode	-13749
?):	-13750
▁SS	-13751
BYTE	-13752
Plan	-13753
void	-13754
ROUTE	-13755
▁Writ	-13756
Verified	-13757
redefined	-13758
▁BIOMETRIC	-13759
▁primitive	-13760
Performance	-13761
▁compatible	-13762
▁normalized	-13763
UiAutomation	-13764
▁AnimatorSet	-13765
▁versionCode	-13766
AtomicFormula	-13767
uceBrightColors	-13768
NAN	-13769
_"},	-13770
logs	-13771
▁13;	-13772
Align	-13773
myUid	-13774
▁year	-13775
▁SIGNAL	-13776
▁anymore	-13777
▁setText	-13778
ASSISTANT	-13779
dependent	-13780
mediaData	-13781
TaskBounds	-13782
▁Reference	-13783
▁completes	-13784
Robolectric	-13785
▁SavedState	-13786
UptimeMillis	-13787
▁ClassLoader	-13788
Communication	-13789
FinishCallback	-13790
StartPrivileges	-13791
LD	-13792
mE	-13793
Arr	-13794
MOST	-13795
Prox	-13796
▁Fix	-13797
onDevice	-13798
▁mOffset	-13799
▁mSecure	-13800
DozeAmount	-13801
MethodName	-13802
▁encounter	-13803
RotationLock	-13804
StartActivity	-13805
BoundsAlgorithm	-13806
▁SQLiteDatabase	-13807
Mgr	-13808
PAC	-13809
▁30;	-13810
▁Var	-13811
ashes	-13812
argest	-13813
mutate	-13814
▁assum	-13815
▁stops	-13816
getSize	-13817
▁stroke	-13818
ANCEABLE	-13819
DemoMode	-13820
FilePath	-13821
Consumers	-13822
eventType	-13823
TimeLocked	-13824
▁VolumeInfo	-13825
▁ResultReceiver	-13826
COM	-13827
▁TH	-13828
PRIV	-13829
oped	-13830
▁Host	-13831
▁Wire	-13832
▁lost	-13833
Usages	-13834
AtStart	-13835
DENSITY	-13836
ONGOING	-13837
▁mEvents	-13838
▁Combined	-13839
▁charging	-13840
▁onChange	-13841
▁collector	-13842
GameService	-13843
▁Foreground	-13844
▁affordance	-13845
▁Association	-13846
tc	-13847
tu	-13848
▁,	-13849
alk	-13850
RADI	-13851
slice	-13852
onView	-13853
▁mField	-13854
▁watcher	-13855
PREFERRED	-13856
nextField	-13857
▁rawEvent	-13858
AndEnabled	-13859
▁arbitrary	-13860
▁developer	-13861
determinate	-13862
▁Aggregated	-13863
▁mRequested	-13864
getBroadcast	-13865
getCurrentUser	-13866
10,	-13867
eil	-13868
hem	-13869
Addr	-13870
pair	-13871
▁=*/	-13872
▁inv	-13873
range	-13874
GATIVE	-13875
arable	-13876
▁third	-13877
MAPPING	-13878
Metered	-13879
lapping	-13880
without	-13881
addChild	-13882
▁mInstall	-13883
▁iteration	-13884
PositionFor	-13885
returnsFalse	-13886
SessionParams	-13887
VolumeBehavior	-13888
getPackageInfo	-13889
urroundingText	-13890
ProgressProvider	-13891
BS	-13892
VR	-13893
Obb	-13894
▁ma	-13895
ummy	-13896
▁req	-13897
Flush	-13898
mTemp	-13899
share	-13900
IGNORE	-13901
▁INPUT	-13902
▁mDraw	-13903
▁mHigh	-13904
getRoot	-13905
▁Haptic	-13906
Fixtures	-13907
Waveform	-13908
▁aligned	-13909
rivileged	-13910
▁probably	-13911
▁onDestroy	-13912
CarrierMerged	-13913
backgroundScope	-13914
UES	-13915
isA	-13916
DESC	-13917
amil	-13918
▁mCpu	-13919
▁areas	-13920
FadeOut	-13921
LocusId	-13922
▁tooltip	-13923
▁increase	-13924
▁recipient	-13925
AlertDialog	-13926
attributeInt	-13927
packageState	-13928
performClick	-13929
StateListeners	-13930
LayoutController	-13931
StatusBarService	-13932
VC	-13933
ToBe	-13934
ences	-13935
▁expl	-13936
parsed	-13937
▁mAuto	-13938
NOTHING	-13939
nextInt	-13940
onClick	-13941
Geofence	-13942
POSITIVE	-13943
▁floating	-13944
SMARTSPACE	-13945
getProcess	-13946
▁TextPaint	-13947
▁isDefault	-13948
BB	-13949
mG	-13950
AID	-13951
xes	-13952
orld	-13953
uple	-13954
▁CTRL	-13955
Broker	-13956
bucket	-13957
▁VALUE	-13958
mExtras	-13959
▁runner	-13960
▁Manager	-13961
▁Visible	-13962
Paragraph	-13963
▁contacts	-13964
getPrimary	-13965
▁isKeyguard	-13966
FalsingManager	-13967
getStringArray	-13968
tap	-13969
SAVER	-13970
Starts	-13971
TestApp	-13972
Interpol	-13973
Shutdown	-13974
mEnabled	-13975
▁NonNull	-13976
AndVerify	-13977
▁enforced	-13978
▁estimated	-13979
▁incorrect	-13980
▁sendMessage	-13981
LEX	-13982
▁BOO	-13983
▁BACK	-13984
▁BIND	-13985
BurnIn	-13986
CLASSI	-13987
ToState	-13988
setType	-13989
▁supply	-13990
Removing	-13991
▁CHANNEL	-13992
ipDelegate	-13993
▁nativeSet	-13994
ContextMenu	-13995
addOverride	-13996
▁uninstalled	-13997
▁CameraDevice	-13998
8(	-13999
_3,	-14000
▁00	-14001
CODEC	-14002
clean	-14003
ufact	-14004
▁FORE	-14005
▁SYNC	-14006
SCALER	-14007
mValue	-14008
manual	-14009
noozed	-14010
NoThrow	-14011
Numbers	-14012
▁consum	-14013
▁impact	-14014
▁killed	-14015
▁preset	-14016
angement	-14017
derlying	-14018
getTitle	-14019
▁Managed	-14020
▁mCursor	-14021
isPackage	-14022
▁MathUtils	-14023
▁constructed	-14024
▁potentially	-14025
PipTransition	-14026
▁dependencies	-14027
ExemptionManager	-14028
PowerStatsConfig	-14029
ELE	-14030
REAC	-14031
TICS	-14032
_1));	-14033
▁Grid	-14034
▁JPEG	-14035
BEFORE	-14036
CONTIN	-14037
idency	-14038
random	-14039
getList	-14040
results	-14041
FEATURES	-14042
▁creates	-14043
▁inflated	-14044
▁Calculate	-14045
INTERACTIVE	-14046
▁Initialize	-14047
▁encryption	-14048
TestFixtures	-14049
subscription	-14050
getIntForUser	-14051
ErrPrintWriter	-14052
setLayoutParams	-14053
▁IAccessibility	-14054
[5	-14055
▁cn	-14056
CROP	-14057
SHAD	-14058
ampol	-14059
osite	-14060
▁That	-14061
▁tapl	-14062
Impact	-14063
ometry	-14064
AutoAdd	-14065
LOCKOUT	-14066
Quietly	-14067
▁navBar	-14068
XmlUtils	-14069
multiple	-14070
▁Instead	-14071
▁mLooper	-14072
Drawables	-14073
getBottom	-14074
▁Platform	-14075
▁mCommand	-14076
▁personal	-14077
BufferSize	-14078
Mitigation	-14079
privateFlags	-14080
)"	-14081
Iso	-14082
ets	-14083
▁Bi	-14084
inux	-14085
tive	-14086
ulled	-14087
▁medi	-14088
setApp	-14089
Verdict	-14090
setView	-14091
launcher	-14092
Disappear	-14093
ForResult	-14094
checkCall	-14095
▁Document	-14096
▁TestUtils	-14097
▁mPowerManager	-14098
-+	-14099
BM	-14100
560	-14101
trl	-14102
▁4.	-14103
CROSS	-14104
ToXml	-14105
lined	-14106
▁nGet	-14107
▁basic	-14108
▁levels	-14109
Assigned	-14110
DecorView	-14111
getShared	-14112
▁CellInfo	-14113
attributes	-14114
▁logBuffer	-14115
▁currentTime	-14116
▁mConversation	-14117
sendEmptyMessage	-14118
▁ws	-14119
IZER	-14120
▁42;	-14121
InUse	-14122
anent	-14123
mHdmi	-14124
▁mOut	-14125
Chains	-14126
Middle	-14127
mBackup	-14128
suspend	-14129
▁really	-14130
Firewall	-14131
LANGUAGE	-14132
children	-14133
Persisted	-14134
▁realtime	-14135
quishiness	-14136
▁committed	-14137
▁Annotation	-14138
BackupRestore	-14139
▁ViewRootImpl	-14140
▁commandQueue	-14141
▁confirmation	-14142
UnlockAnimation	-14143
>(),	-14144
liest	-14145
OURCES	-14146
REWALL	-14147
ToFile	-14148
alette	-14149
eresis	-14150
▁Apply	-14151
▁tuner	-14152
getSpan	-14153
CpuTimes	-14154
allocate	-14155
devicest	-14156
ysteresis	-14157
▁ListView	-14158
▁mPresent	-14159
addService	-14160
getChanges	-14161
Decorations	-14162
Eligibility	-14163
▁viewHolder	-14164
PackageSetting	-14165
▁ConstraintSet	-14166
CD	-14167
tn	-14168
IDE	-14169
DEPTH	-14170
ENCRY	-14171
since	-14172
RENDER	-14173
anized	-14174
▁mount	-14175
▁udfps	-14176
Transit	-14177
▁inputs	-14178
Adjusted	-14179
Handlers	-14180
▁Channel	-14181
▁shutdown	-14182
▁getSystem	-14183
▁mechanism	-14184
Controllers	-14185
colorScheme	-14186
ooledLambda	-14187
CallbackInfo	-14188
▁contentView	-14189
StatusBarView	-14190
getConnection	-14191
CountDownLatch	-14192
UserRestrictions	-14193
ttf	-14194
▁4)	-14195
unct	-14196
▁//@	-14197
▁Dpm	-14198
▁Fade	-14199
▁Just	-14200
▁nSet	-14201
anular	-14202
getCur	-14203
semant	-14204
▁Proxy	-14205
vertical	-14206
ammatical	-14207
endSection	-14208
ElapsedTime	-14209
Placeholder	-14210
▁mPreference	-14211
HandlerThread	-14212
▁SettingsState	-14213
ARC	-14214
pow	-14215
Seek	-14216
▁CUR	-14217
ATTEN	-14218
Rating	-14219
script	-14220
▁arrow	-14221
▁onTop	-14222
▁forced	-14223
RINGTONE	-14224
Occlusion	-14225
urbulence	-14226
Adjustments	-14227
devicestate	-14228
getLocation	-14229
noException	-14230
▁AlertDialog	-14231
ManagerGlobal	-14232
BatteryManager	-14233
SettingsLocked	-14234
▁DeviceSetting	-14235
▁Implementation	-14236
getWindowingMode	-14237
01,	-14238
Cmd	-14239
DIM	-14240
arer	-14241
CHAIN	-14242
▁FIRST	-14243
Compile	-14244
Deleted	-14245
Entered	-14246
ilation	-14247
▁layers	-14248
▁queued	-14249
evaluate	-14250
strained	-14251
▁BOOLEAN	-14252
▁Ranking	-14253
▁mWmService	-14254
▁appWidgetId	-14255
PlaybackState	-14256
▁unregistered	-14257
HealthObserver	-14258
▁RavenwoodRule	-14259
▁expectedStats	-14260
▁mCachedDevice	-14261
FragmentManager	-14262
▁SystemUIDialog	-14263
Rat	-14264
arp	-14265
▁AM	-14266
Hold	-14267
KILL	-14268
▁2010	-14269
ToGone	-14270
▁pages	-14271
BOOLEAN	-14272
setSpan	-14273
SCHEDULE	-14274
▁signals	-14275
preferred	-14276
▁MediaData	-14277
DumpManager	-14278
▁mOrientation	-14279
FlickerService	-14280
AlgorithmStatus	-14281
isG	-14282
▁CM	-14283
DEAD	-14284
FAKE	-14285
iCam	-14286
rune	-14287
▁14;	-14288
▁Cor	-14289
▁TAR	-14290
▁few	-14291
CALLS	-14292
COMPA	-14293
swipe	-14294
▁Null	-14295
▁named	-14296
▁reach	-14297
PARTIAL	-14298
PreDraw	-14299
amilies	-14300
mIntent	-14301
▁mPopup	-14302
Overview	-14303
aturation	-14304
ButtonText	-14305
setMessage	-14306
▁mObserver	-14307
Credentials	-14308
▁Visibility	-14309
ActivityType	-14310
▁currentUser	-14311
[3]	-14312
body	-14313
kill	-14314
▁17;	-14315
▁4);	-14316
▁2013	-14317
▁GEST	-14318
▁Step	-14319
▁mPer	-14320
OBJECT	-14321
▁listed	-14322
▁tracks	-14323
playback	-14324
▁disallow	-14325
MainLooper	-14326
WifiManager	-14327
▁expandable	-14328
MockitoJUnit	-14329
createBitmap	-14330
MinAspectRatio	-14331
BroadcastRecord	-14332
ConfigurationMap	-14333
Meta	-14334
▁mNo	-14335
ARGIN	-14336
▁Does	-14337
Becomes	-14338
MULTIPLE	-14339
assisted	-14340
Initiator	-14341
▁detached	-14342
▁unparcel	-14343
▁bgExecutor	-14344
▁privileged	-14345
CallbackFlow	-14346
ToLockscreen	-14347
▁UsageEvents	-14348
▁allowlisted	-14349
NetworkPolicy	-14350
VolumeControl	-14351
getResourceId	-14352
waitForIdleSync	-14353
("0	-14354
Sad	-14355
▁?.	-14356
LATE	-14357
rink	-14358
▁But	-14359
INSERT	-14360
MEMORY	-14361
Modern	-14362
ToShow	-14363
elimit	-14364
▁mMode	-14365
KeyDown	-14366
▁Insert	-14367
▁LAUNCH	-14368
getFrame	-14369
▁getItem	-14370
BubbleBar	-14371
Expedited	-14372
registers	-14373
▁chaining	-14374
ShortcutId	-14375
PointerIcon	-14376
▁difference	-14377
▁resultData	-14378
WindowLayout	-14379
ClientMonitor	-14380
▁selectionArgs	-14381
ZeroInteractions	-14382
▁SA	-14383
mbol	-14384
▁lhs	-14385
eutral	-14386
▁mapOf	-14387
delegate	-14388
▁inputId	-14389
▁remains	-14390
▁ignoring	-14391
▁maxWidth	-14392
▁userType	-14393
IgnoreCase	-14394
▁Concurrent	-14395
▁mContainer	-14396
▁serviceName	-14397
ChangedLocked	-14398
▁PackageWatchdog	-14399
▁onConfiguration	-14400
▁TOP	-14401
▁fout	-14402
Execut	-14403
Respon	-14404
SENDER	-14405
ometer	-14406
Capable	-14407
▁IoUtils	-14408
▁dragged	-14409
▁overlap	-14410
▁println	-14411
Injection	-14412
assertAll	-14413
Exploration	-14414
setProperty	-14415
CaptureAware	-14416
SettingLocked	-14417
▁mMainHandler	-14418
RemoteTransition	-14419
Bi	-14420
phab	-14421
▁50;	-14422
INFIN	-14423
calls	-14424
eaker	-14425
▁MODI	-14426
mStats	-14427
▁Style	-14428
LATENCY	-14429
mScreen	-14430
mutable	-14431
testapp	-14432
▁EditText	-14433
Announcement	-14434
ClientProfile	-14435
Fs	-14436
rm	-14437
[1],	-14438
lips	-14439
▁bal	-14440
Built	-14441
Early	-14442
Remot	-14443
PipMenu	-14444
mStatus	-14445
▁revoke	-14446
CodePath	-14447
computed	-14448
▁FileNot	-14449
▁thermal	-14450
Elevation	-14451
▁keyEvent	-14452
▁querying	-14453
▁triggers	-14454
getEnabled	-14455
Allowlisted	-14456
▁confidence	-14457
▁instantiate	-14458
GestureExclusion	-14459
.1	-14460
PUL	-14461
Pad	-14462
RECT	-14463
quee	-14464
▁Top	-14465
Affil	-14466
Prior	-14467
rules	-14468
▁week	-14469
ENROLL	-14470
EXACTLY	-14471
PROGRAM	-14472
valanche	-14473
▁Refresh	-14474
▁centerX	-14475
▁derived	-14476
Permitted	-14477
onService	-14478
setShould	-14479
▁setState	-14480
checkState	-14481
protection	-14482
StringValue	-14483
DreamOverlay	-14484
getAnimation	-14485
▁PhoneAccount	-14486
▁OutcomeReceiver	-14487
▁setDeviceConfig	-14488
ah	-14489
ls	-14490
Cas	-14491
Hook	-14492
rops	-14493
▁SPL	-14494
▁ims	-14495
▁Fold	-14496
▁wasn	-14497
ZoneId	-14498
ICATION	-14499
▁PREFIX	-14500
DISPATCH	-14501
ampoline	-14502
▁mParcel	-14503
▁restrict	-14504
▁mTempRect	-14505
▁repeating	-14506
▁Restriction	-14507
LowPowerStandby	-14508
[...]
